{"<|endoftext|>": 0, " ": 1, "!": 2, "#": 3, "$": 4, "%": 5, "&": 6, "'": 7, "(": 8, ")": 9, "*": 10, "+": 11, ",": 12, "-": 13, ".": 14, "/": 15, "0": 16, "1": 17, "2": 18, "3": 19, "4": 20, "5": 21, "6": 22, "7": 23, "8": 24, "9": 25, ":": 26, ";": 27, "<": 28, "=": 29, ">": 30, "?": 31, "@": 32, "[": 33, "\\": 34, "]": 35, "^": 36, "_": 37, "`": 38, "a": 39, "b": 40, "c": 41, "d": 42, "e": 43, "f": 44, "g": 45, "h": 46, "i": 47, "j": 48, "k": 49, "l": 50, "m": 51, "n": 52, "o": 53, "p": 54, "q": 55, "r": 56, "s": 57, "t": 58, "u": 59, "v": 60, "w": 61, "x": 62, "y": 63, "z": 64, "{": 65, "|": 66, "}": 67, "~": 68, "he": 69, " t": 70, " a": 71, " .": 72, "in": 73, " s": 74, " w": 75, " ,": 76, "ou": 77, "ed": 78, " '": 79, " h": 80, " the": 81, " m": 82, "re": 83, " b": 84, " i": 85, "nd": 86, " o": 87, "ing": 88, " he": 89, " to": 90, "er": 91, " f": 92, " c": 93, "at": 94, " d": 95, " n": 96, " l": 97, "is": 98, "``": 99, " ''": 100, "as": 101, " th": 102, "en": 103, " and": 104, "ll": 105, "an": 106, "on": 107, " p": 108, "or": 109, "it": 110, "ar": 111, " g": 112, " y": 113, "es": 114, " in": 115, " of": 116, " her": 117, " ha": 118, " you": 119, "om": 120, "ow": 121, " be": 122, " was": 123, " e": 124, "id": 125, "ot": 126, "ld": 127, "le": 128, "ac": 129, "gh": 130, "ve": 131, " his": 132, "im": 133, "st": 134, " on": 135, "et": 136, "'t": 137, "ly": 138, " st": 139, " it": 140, "ay": 141, " that": 142, " me": 143, "ut": 144, " she": 145, " my": 146, " u": 147, "ver": 148, " ?": 149, " k": 150, "ic": 151, "out": 152, " wh": 153, " r": 154, "se": 155, " re": 156, " as": 157, "ad": 158, "ould": 159, "ght": 160, "ith": 161, "oo": 162, "al": 163, " we": 164, " with": 165, " for": 166, "ke": 167, " do": 168, " him": 169, "ir": 170, " li": 171, "ent": 172, " had": 173, "the": 174, "ur": 175, " at": 176, " sh": 177, " an": 178, "am": 179, " j": 180, "all": 181, "ion": 182, "ee": 183, "she": 184, "ked": 185, "ight": 186, " fr": 187, "ant": 188, "pp": 189, " ne": 190, "ch": 191, "her": 192, " but": 193, "ack": 194, " sa": 195, "ro": 196, " so": 197, "ter": 198, " kn": 199, "ain": 200, " not": 201, " out": 202, "th": 203, "ore": 204, "ce": 205, " up": 206, "and": 207, "ust": 208, "il": 209, "ill": 210, " did": 211, " what": 212, " have": 213, "rou": 214, "king": 215, "ome": 216, "ie": 217, " go": 218, "one": 219, " ab": 220, " is": 221, "ec": 222, " could": 223, "to": 224, " whe": 225, " said": 226, " back": 227, "ard": 228, "un": 229, " this": 230, "ri": 231, " le": 232, " no": 233, " from": 234, " would": 235, "ab": 236, "au": 237, " loo": 238, " ch": 239, "ted": 240, "ind": 241, "own": 242, " like": 243, " want": 244, " su": 245, " all": 246, "ss": 247, " al": 248, "ag": 249, " ag": 250, "ess": 251, "el": 252, " v": 253, " cl": 254, " were": 255, " hand": 256, "hed": 257, "ake": 258, " into": 259, " about": 260, " know": 261, "ood": 262, " wor": 263, "ace": 264, " if": 265, " tr": 266, " just": 267, "hing": 268, "ally": 269, " one": 270, "ide": 271, "ast": 272, " ex": 273, "if": 274, " over": 275, " ey": 276, "us": 277, "ck": 278, "qu": 279, " con": 280, "ell": 281, " your": 282, " when": 283, " lo": 284, "way": 285, " sp": 286, " been": 287, "art": 288, " any": 289, "ven": 290, " get": 291, "very": 292, " they": 293, "our": 294, "ul": 295, " ro": 296, "ate": 297, " again": 298, " down": 299, "ong": 300, "lf": 301, "ers": 302, " see": 303, " bl": 304, " tim": 305, " br": 306, " gr": 307, "um": 308, " eyes": 309, " sm": 310, " too": 311, "are": 312, "ap": 313, "op": 314, " them": 315, " se": 316, " off": 317, " un": 318, "we": 319, " de": 320, "est": 321, " there": 322, " or": 323, " pl": 324, "round": 325, "ice": 326, " mo": 327, "ist": 328, "ous": 329, "ame": 330, " co": 331, "ink": 332, " are": 333, " head": 334, " then": 335, " bo": 336, " time": 337, "sed": 338, "urn": 339, "ew": 340, " ``": 341, " ar": 342, "ting": 343, "ig": 344, "ull": 345, " who": 346, " thou": 347, "other": 348, "pped": 349, "ine": 350, "ation": 351, "ry": 352, "ive": 353, " more": 354, "self": 355, " com": 356, "..": 357, " some": 358, " sl": 359, " ...": 360, " fl": 361, "but": 362, "fore": 363, " man": 364, "ved": 365, " how": 366, " going": 367, "ick": 368, " way": 369, " ac": 370, "ile": 371, " around": 372, "ear": 373, "led": 374, "ge": 375, " than": 376, " qu": 377, "ving": 378, "ak": 379, "nder": 380, " now": 381, " po": 382, "ra": 383, " before": 384, " need": 385, " even": 386, " can": 387, "ound": 388, " by": 389, " sc": 390, "ther": 391, " say": 392, "reat": 393, "ps": 394, "fe": 395, "ire": 396, "ure": 397, " pre": 398, "ade": 399, " every": 400, "eel": 401, " en": 402, " bec": 403, "em": 404, "ause": 405, " !": 406, " right": 407, "omet": 408, " tw": 409, "ered": 410, "thing": 411, "dd": 412, " think": 413, " here": 414, "ort": 415, "ave": 416, " should": 417, " feel": 418, "rough": 419, " let": 420, " gl": 421, " look": 422, "ft": 423, " thought": 424, " through": 425, " turn": 426, " looked": 427, " thing": 428, " face": 429, " away": 430, " never": 431, " af": 432, " us": 433, " other": 434, " only": 435, "pt": 436, "act": 437, " pro": 438, "omething": 439, "dy": 440, "ose": 441, "eep": 442, " che": 443, " bet": 444, " pr": 445, "you": 446, "tle": 447, "ened": 448, "ect": 449, " mu": 450, "wh": 451, " good": 452, " door": 453, " exp": 454, " will": 455, "aking": 456, "his": 457, " knew": 458, " wanted": 459, " arm": 460, "ite": 461, " made": 462, "te": 463, " still": 464, " got": 465, "nt": 466, " long": 467, " their": 468, " something": 469, "iz": 470, " because": 471, " gu": 472, "ass": 473, "be": 474, "ol": 475, "ward": 476, "ched": 477, "iss": 478, "able": 479, "ue": 480, "ang": 481, " asked": 482, "ach": 483, "ated": 484, " much": 485, "ff": 486, " tell": 487, " star": 488, " make": 489, " hands": 490, " wa": 491, " wat": 492, " im": 493, "ough": 494, "ip": 495, " room": 496, "ious": 497, " pull": 498, " lit": 499, "elt": 500, "ble": 501, "ady": 502, "ity": 503, "whe": 504, " take": 505, " op": 506, "ance": 507, " happ": 508, "ress": 509, "wn": 510, "age": 511, "os": 512, "ather": 513, "my": 514, "ning": 515, "ies": 516, " felt": 517, " mom": 518, " fir": 519, " car": 520, "ks": 521, " after": 522, "ried": 523, " call": 524, " against": 525, "oice": 526, " night": 527, "ct": 528, "ase": 529, "ah": 530, " little": 531, " under": 532, " am": 533, "med": 534, " why": 535, "ree": 536, " wo": 537, " where": 538, "ying": 539, "ment": 540, " day": 541, " come": 542, "side": 543, "sh": 544, " rem": 545, "air": 546, "de": 547, "ark": 548, "ru": 549, " fo": 550, " wal": 551, " dis": 552, " tal": 553, " body": 554, " te": 555, " took": 556, " love": 557, " ste": 558, "ty": 559, " sure": 560, " ho": 561, " ca": 562, " two": 563, "ath": 564, "so": 565, "ond": 566, " hard": 567, " bed": 568, "ne": 569, " wom": 570, " really": 571, " well": 572, "gg": 573, "ily": 574, " voice": 575, " cont": 576, " sk": 577, "oth": 578, " our": 579, "az": 580, " first": 581, " turned": 582, "no": 583, "uck": 584, "ich": 585, "get": 586, " breat": 587, " hel": 588, "row": 589, " told": 590, " des": 591, "ple": 592, " life": 593, "that": 594, " sw": 595, " em": 596, " pe": 597, "ling": 598, "outh": 599, " el": 600, " word": 601, " lau": 602, "ied": 603, "ned": 604, " real": 605, "av": 606, " dr": 607, " put": 608, " anything": 609, "ber": 610, "anc": 611, " fing": 612, " hair": 613, "ia": 614, " last": 615, "ook": 616, " mouth": 617, "pl": 618, "**": 619, " sec": 620, " mar": 621, "til": 622, " part": 623, "they": 624, "ears": 625, " sur": 626, "per": 627, " being": 628, "sp": 629, " wait": 630, "ouse": 631, "ince": 632, " came": 633, " ever": 634, "ise": 635, " enough": 636, " bel": 637, " fin": 638, " moment": 639, " help": 640, "iend": 641, " str": 642, " wr": 643, " ph": 644, "ild": 645, "ful": 646, " while": 647, "ence": 648, " went": 649, " war": 650, " another": 651, "xt": 652, " beh": 653, " app": 654, " ad": 655, " own": 656, " side": 657, "ail": 658, "ens": 659, " cou": 660, " until": 661, "ont": 662, "ves": 663, " left": 664, "igh": 665, "ching": 666, "ross": 667, "aybe": 668, " arms": 669, " jo": 670, "ways": 671, " lips": 672, " find": 673, " cr": 674, "uc": 675, " per": 676, " mind": 677, "ans": 678, " care": 679, " has": 680, " ear": 681, " keep": 682, " heart": 683, " does": 684, "for": 685, " very": 686, " woman": 687, " few": 688, "les": 689, "when": 690, " things": 691, " mat": 692, "mo": 693, " gir": 694, " nothing": 695, "ish": 696, " behind": 697, "hes": 698, " might": 699, " house": 700, "there": 701, " sound": 702, " smile": 703, " cur": 704, " inside": 705, "ub": 706, " fe": 707, " new": 708, " sn": 709, "ane": 710, "ner": 711, " yes": 712, " pulled": 713, " att": 714, " always": 715, "owed": 716, " dec": 717, "ople": 718, "what": 719, " home": 720, "ared": 721, "gan": 722, " ass": 723, "ween": 724, "ions": 725, " cle": 726, " rel": 727, " open": 728, "ren": 729, " toward": 730, " ton": 731, " kiss": 732, " set": 733, "amp": 734, " end": 735, " myself": 736, " tou": 737, " between": 738, " dark": 739, "ower": 740, " smil": 741, "not": 742, "ian": 743, " saw": 744, "then": 745, " give": 746, "kay": 747, "osed": 748, " hold": 749, "ating": 750, " girl": 751, "ep": 752, " breath": 753, "ness": 754, " both": 755, " people": 756, " though": 757, " ple": 758, " everything": 759, "ool": 760, "dded": 761, " next": 762, "int": 763, "bed": 764, " front": 765, " friend": 766, "ud": 767, " those": 768, " ent": 769, " sho": 770, " mother": 771, " ke": 772, " trying": 773, "sw": 774, "up": 775, " swe": 776, " deep": 777, " sit": 778, " hur": 779, "ream": 780, " gave": 781, " work": 782, " place": 783, " better": 784, " fam": 785, "pping": 786, " bit": 787, " rest": 788, "ready": 789, " gi": 790, "rew": 791, " act": 792, " -": 793, "gether": 794, " sat": 795, " looking": 796, "ier": 797, " done": 798, " which": 799, " light": 800, "ually": 801, " answ": 802, "most": 803, " already": 804, " father": 805, " himself": 806, " same": 807, " doing": 808, " words": 809, " without": 810, " run": 811, "pr": 812, " min": 813, " herself": 814, " since": 815, " together": 816, " hop": 817, "aught": 818, "this": 819, " bu": 820, "ason": 821, " stand": 822, "ys": 823, " someone": 824, " okay": 825, " started": 826, " fingers": 827, "ret": 828, " sil": 829, " stop": 830, " mean": 831, " sle": 832, "cked": 833, "less": 834, " chest": 835, "ord": 836, "ushe": 837, " whis": 838, " found": 839, " else": 840, " ;": 841, " kind": 842, "gs": 843, " bre": 844, "how": 845, "ably": 846, " hell": 847, "ory": 848, " stay": 849, " most": 850, "cl": 851, " needed": 852, " soft": 853, " hu": 854, "aw": 855, " heard": 856, " feeling": 857, " reac": 858, "ax": 859, " second": 860, "irt": 861, "ised": 862, " once": 863, "ten": 864, " ang": 865, "ank": 866, " close": 867, " belie": 868, " sto": 869, " imp": 870, " dri": 871, " hear": 872, " kill": 873, "issed": 874, " pain": 875, "rent": 876, " dro": 877, " tried": 878, " inst": 879, " across": 880, "ert": 881, "co": 882, " cour": 883, " walked": 884, " gaz": 885, "aned": 886, "red": 887, "ured": 888, "ized": 889, " held": 890, "ib": 891, "ange": 892, "ushed": 893, " each": 894, " spe": 895, " flo": 896, "lo": 897, " z": 898, " ser": 899, " far": 900, " years": 901, "ump": 902, "icked": 903, "ict": 904, "ung": 905, " wonder": 906, "ater": 907, "ever": 908, "ary": 909, "ix": 910, "ash": 911, "iv": 912, " talk": 913, "inking": 914, " ret": 915, " tight": 916, "ek": 917, "eah": 918, " mor": 919, " almost": 920, " oh": 921, " minut": 922, " lot": 923, " old": 924, " phone": 925, "day": 926, "ale": 927, " quick": 928, " nodded": 929, "ons": 930, "umb": 931, " blood": 932, " seemed": 933, "aut": 934, " smiled": 935, " shook": 936, " sor": 937, "ible": 938, " bad": 939, "ced": 940, "tered": 941, " start": 942, " big": 943, " moved": 944, " play": 945, "gn": 946, " dam": 947, " leave": 948, " remem": 949, " press": 950, " underst": 951, " sex": 952, "ipped": 953, "akes": 954, " move": 955, " black": 956, " small": 957, "ention": 958, " family": 959, " stood": 960, " getting": 961, " table": 962, " skin": 963, "room": 964, "ike": 965, " past": 966, "ither": 967, "ial": 968, "ully": 969, "eth": 970, " making": 971, " maybe": 972, " dem": 973, " ide": 974, " hurt": 975, " bar": 976, "by": 977, " slow": 978, "ush": 979, " seen": 980, " hot": 981, " clos": 982, " gone": 983, " neck": 984, " gaze": 985, "ently": 986, "with": 987, " quest": 988, "ering": 989, " feet": 990, "bably": 991, " eas": 992, " mine": 993, " dif": 994, "aring": 995, " sig": 996, "ately": 997, " floor": 998, " grab": 999, "gged": 1000, " yeah": 1001, "do": 1002, "iet": 1003, "erson": 1004, " bab": 1005, " hum": 1006, "ows": 1007, "ished": 1008, " comp": 1009, " wind": 1010, " mon": 1011, " beaut": 1012, " cor": 1013, "now": 1014, "ected": 1015, " ob": 1016, " god": 1017, "aced": 1018, " ed": 1019, " sorry": 1020, " wall": 1021, " ap": 1022, " sim": 1023, " brother": 1024, " supp": 1025, " hour": 1026, " world": 1027, " met": 1028, "af": 1029, " int": 1030, " bus": 1031, "ense": 1032, " reached": 1033, "fect": 1034, " idea": 1035, " grin": 1036, "che": 1037, " best": 1038, " squ": 1039, " says": 1040, "ained": 1041, " fall": 1042, " air": 1043, " foll": 1044, " least": 1045, " anyone": 1046, " ask": 1047, " surpr": 1048, " probably": 1049, " meet": 1050, "pe": 1051, " resp": 1052, "ined": 1053, "vers": 1054, " believe": 1055, " yet": 1056, " three": 1057, " happened": 1058, " coming": 1059, " called": 1060, " fact": 1061, " near": 1062, "iness": 1063, "iously": 1064, "ton": 1065, " name": 1066, "ips": 1067, " taking": 1068, " cons": 1069, " men": 1070, " laugh": 1071, "owing": 1072, " ev": 1073, " conf": 1074, " poss": 1075, " reason": 1076, " opened": 1077, " dress": 1078, " whisp": 1079, " shoulder": 1080, " thro": 1081, " must": 1082, " inv": 1083, "app": 1084, " sleep": 1085, "orm": 1086, " course": 1087, " stopped": 1088, " finally": 1089, " aw": 1090, " bro": 1091, " kept": 1092, " res": 1093, " lif": 1094, " soon": 1095, "ged": 1096, " fore": 1097, "where": 1098, " acc": 1099, " later": 1100, "ghed": 1101, "used": 1102, "ening": 1103, " person": 1104, " ty": 1105, " ra": 1106, "just": 1107, " morning": 1108, "arent": 1109, "na": 1110, " wrong": 1111, "ead": 1112, " ben": 1113, " closed": 1114, " also": 1115, " used": 1116, " hit": 1117, "uff": 1118, "vered": 1119, "ister": 1120, "ual": 1121, " having": 1122, " eye": 1123, " legs": 1124, " roll": 1125, " expl": 1126, "dden": 1127, " dad": 1128, " guy": 1129, " half": 1130, " laughed": 1131, " dist": 1132, " thinking": 1133, " col": 1134, " child": 1135, "ided": 1136, " touch": 1137, " ready": 1138, " comple": 1139, "sit": 1140, " matter": 1141, "gue": 1142, " char": 1143, " understand": 1144, "cept": 1145, " alone": 1146, " many": 1147, "br": 1148, "ief": 1149, "ms": 1150, " cut": 1151, " along": 1152, " top": 1153, " ran": 1154, " return": 1155, "mit": 1156, "idd": 1157, " vamp": 1158, " glanc": 1159, " forward": 1160, " del": 1161, " slid": 1162, "iful": 1163, "fully": 1164, "aken": 1165, " watched": 1166, "ph": 1167, " water": 1168, " fine": 1169, " red": 1170, "after": 1171, " great": 1172, " diffe": 1173, "ize": 1174, " whispered": 1175, " able": 1176, "ors": 1177, "rest": 1178, " par": 1179, " pret": 1180, " plan": 1181, " prom": 1182, " stared": 1183, " such": 1184, "raw": 1185, "bo": 1186, " talking": 1187, " exact": 1188, "oney": 1189, "ny": 1190, "der": 1191, " point": 1192, " its": 1193, " vampire": 1194, " high": 1195, "gin": 1196, "ction": 1197, " try": 1198, " onto": 1199, " sweet": 1200, " fight": 1201, " baby": 1202, " throat": 1203, " prot": 1204, " remember": 1205, " :": 1206, " cat": 1207, " pleas": 1208, " warm": 1209, " meant": 1210, " happy": 1211, " beautiful": 1212, "asp": 1213, " list": 1214, " inte": 1215, "eks": 1216, " perfect": 1217, "ings": 1218, " gre": 1219, " quiet": 1220, "fort": 1221, " mus": 1222, " shit": 1223, " pretty": 1224, " tre": 1225, " loved": 1226, "maybe": 1227, " leaned": 1228, " clear": 1229, " began": 1230, " dou": 1231, " actually": 1232, " answer": 1233, " es": 1234, "head": 1235, "ically": 1236, "airs": 1237, "illed": 1238, " complete": 1239, " na": 1240, " mag": 1241, " days": 1242, " question": 1243, " full": 1244, " contin": 1245, " tonight": 1246, " kit": 1247, " ter": 1248, " caught": 1249, " low": 1250, " cal": 1251, " je": 1252, "uth": 1253, "ife": 1254, " minutes": 1255, "ger": 1256, " bare": 1257, " sudden": 1258, "apped": 1259, "ical": 1260, " fig": 1261, " realized": 1262, " whole": 1263, " guess": 1264, "gr": 1265, "aving": 1266, " power": 1267, " ago": 1268, " break": 1269, " ref": 1270, " either": 1271, " boy": 1272, " miss": 1273, "go": 1274, "mor": 1275, " glass": 1276, " exactly": 1277, "jo": 1278, " shif": 1279, " stra": 1280, " show": 1281, "even": 1282, "fin": 1283, " bes": 1284, " inter": 1285, "ertain": 1286, " exc": 1287, " fre": 1288, " inc": 1289, " these": 1290, " everyone": 1291, " fun": 1292, " jack": 1293, " kissed": 1294, " sister": 1295, " shoulders": 1296, " quickly": 1297, " dire": 1298, "why": 1299, " fire": 1300, " reg": 1301, "ression": 1302, "ides": 1303, "aid": 1304, "more": 1305, " walk": 1306, " lost": 1307, " kid": 1308, " times": 1309, " ins": 1310, "let": 1311, " deal": 1312, "son": 1313, "ued": 1314, " different": 1315, " pur": 1316, " hall": 1317, " white": 1318, " pat": 1319, " waiting": 1320, "ken": 1321, " slowly": 1322, " step": 1323, " hor": 1324, " pass": 1325, " straight": 1326, " dead": 1327, " stom": 1328, " standing": 1329, " glanced": 1330, " entire": 1331, " cold": 1332, " bur": 1333, "cer": 1334, " taken": 1335, " read": 1336, " det": 1337, " coll": 1338, "ored": 1339, "mm": 1340, " friends": 1341, " fell": 1342, " nice": 1343, " mur": 1344, "cle": 1345, "any": 1346, " hope": 1347, " lifted": 1348, " tongue": 1349, "vel": 1350, "oun": 1351, "zy": 1352, " damn": 1353, " imag": 1354, "ien": 1355, " thr": 1356, " din": 1357, " free": 1358, "chen": 1359, " strong": 1360, " job": 1361, "ming": 1362, " closer": 1363, " vis": 1364, " bot": 1365, " lay": 1366, " grabbed": 1367, " spo": 1368, "ply": 1369, " repl": 1370, " shut": 1371, " shru": 1372, "nding": 1373, " holding": 1374, " seat": 1375, "fr": 1376, " cra": 1377, "rought": 1378, " contro": 1379, "aged": 1380, " kitchen": 1381, " clot": 1382, "uring": 1383, "apter": 1384, " mess": 1385, " pushed": 1386, " month": 1387, " watching": 1388, " business": 1389, " use": 1390, " shirt": 1391, " blue": 1392, " shot": 1393, " short": 1394, " bring": 1395, " fur": 1396, "enty": 1397, "eared": 1398, " apart": 1399, "ired": 1400, " looks": 1401, "oud": 1402, " brought": 1403, " sch": 1404, "cess": 1405, "cent": 1406, " trust": 1407, " chair": 1408, " stepped": 1409, " thank": 1410, " pant": 1411, " ele": 1412, "ock": 1413, " sense": 1414, "aps": 1415, " please": 1416, " har": 1417, "anged": 1418, " outside": 1419, "like": 1420, "read": 1421, " hers": 1422, " attention": 1423, " sent": 1424, "chapter": 1425, " watch": 1426, " sun": 1427, " stomach": 1428, " er": 1429, " chance": 1430, " women": 1431, " cry": 1432, "ited": 1433, " disapp": 1434, "every": 1435, " ground": 1436, "acked": 1437, " hours": 1438, "ult": 1439, " dream": 1440, "lt": 1441, " wra": 1442, "bing": 1443, "ased": 1444, " tri": 1445, "anger": 1446, "inted": 1447, " rub": 1448, " change": 1449, "ze": 1450, " cheek": 1451, " mr": 1452, " living": 1453, " consid": 1454, " win": 1455, "ures": 1456, " sens": 1457, " expression": 1458, " dropped": 1459, "otion": 1460, " saying": 1461, " sitting": 1462, " office": 1463, "isted": 1464, "bec": 1465, " mut": 1466, " parent": 1467, "ging": 1468, " whatever": 1469, " hung": 1470, " longer": 1471, " four": 1472, "iver": 1473, " known": 1474, " finger": 1475, " truth": 1476, "ters": 1477, " beside": 1478, " luc": 1479, " true": 1480, "io": 1481, " youn": 1482, " money": 1483, " coun": 1484, "ially": 1485, " gro": 1486, " completely": 1487, "ets": 1488, " less": 1489, " interest": 1490, " leaving": 1491, " control": 1492, "ations": 1493, " given": 1494, " mad": 1495, " bag": 1496, " school": 1497, " giving": 1498, " burn": 1499, "ina": 1500, "ents": 1501, " today": 1502, " comm": 1503, " pressed": 1504, " certain": 1505, " lu": 1506, "ison": 1507, " frown": 1508, "cking": 1509, "assed": 1510, " ign": 1511, "antly": 1512, " stro": 1513, " line": 1514, " scream": 1515, " gri": 1516, " hun": 1517, " tears": 1518, "sing": 1519, "ape": 1520, " moving": 1521, "nded": 1522, " ten": 1523, "lly": 1524, "iding": 1525, " smo": 1526, "orn": 1527, " land": 1528, "oh": 1529, " slight": 1530, "ime": 1531, "ird": 1532, "ik": 1533, " proble": 1534, " lar": 1535, " running": 1536, " pal": 1537, " decided": 1538, " pres": 1539, " doub": 1540, "ship": 1541, " parents": 1542, " tem": 1543, " worry": 1544, " build": 1545, " safe": 1546, " live": 1547, "com": 1548, " hon": 1549, " suddenly": 1550, " week": 1551, " ru": 1552, " bene": 1553, "ins": 1554, " knowing": 1555, "though": 1556, " cir": 1557, " foot": 1558, "ushing": 1559, " enjo": 1560, " cross": 1561, " clothes": 1562, " human": 1563, " window": 1564, " may": 1565, " begin": 1566, " av": 1567, "iced": 1568, " teeth": 1569, " heav": 1570, "ky": 1571, " coff": 1572, " lear": 1573, "ees": 1574, " da": 1575, " liked": 1576, " obv": 1577, " drink": 1578, " working": 1579, " son": 1580, "rist": 1581, "ought": 1582, " stre": 1583, " instead": 1584, " fast": 1585, " grand": 1586, " grow": 1587, " couple": 1588, " death": 1589, " pict": 1590, " rolled": 1591, "yed": 1592, " fear": 1593, " pol": 1594, " remind": 1595, " supposed": 1596, " followed": 1597, " ner": 1598, "ches": 1599, " five": 1600, "ames": 1601, "use": 1602, "bl": 1603, " pie": 1604, "ma": 1605, " jump": 1606, "ular": 1607, "iff": 1608, "action": 1609, " cap": 1610, "cy": 1611, "aster": 1612, " yourself": 1613, " pay": 1614, " sighed": 1615, " pri": 1616, " admit": 1617, "veral": 1618, " bath": 1619, " bedroom": 1620, "aused": 1621, " sy": 1622, "man": 1623, "iny": 1624, " sing": 1625, " pleasure": 1626, " forg": 1627, "ount": 1628, "ashed": 1629, "ley": 1630, "acing": 1631, " happen": 1632, " sam": 1633, " coffee": 1634, " seeing": 1635, " rose": 1636, " waist": 1637, " year": 1638, " hips": 1639, " telling": 1640, "me": 1641, " rec": 1642, "ci": 1643, " tor": 1644, " sky": 1645, " makes": 1646, " add": 1647, " dinner": 1648, " softly": 1649, " *": 1650, " drive": 1651, "ove": 1652, " sub": 1653, " speak": 1654, " filled": 1655, "gth": 1656, "een": 1657, "ition": 1658, " pap": 1659, " eff": 1660, " mist": 1661, "els": 1662, "ility": 1663, "raid": 1664, " lip": 1665, " abs": 1666, " town": 1667, "unch": 1668, " convers": 1669, "its": 1670, "col": 1671, " wife": 1672, " dev": 1673, " wrapped": 1674, "ement": 1675, " ind": 1676, "anie": 1677, " sign": 1678, " shrugged": 1679, " worked": 1680, " protect": 1681, " appro": 1682, "ising": 1683, " draw": 1684, " foc": 1685, " edge": 1686, "og": 1687, "ror": 1688, " hang": 1689, " late": 1690, "upid": 1691, " bat": 1692, " barely": 1693, " stru": 1694, " knees": 1695, "ject": 1696, " thoughts": 1697, " continued": 1698, " pulling": 1699, " months": 1700, " ve": 1701, " desk": 1702, " staring": 1703, " mir": 1704, " esc": 1705, "some": 1706, " jer": 1707, " picked": 1708, " guys": 1709, " easy": 1710, " ce": 1711, "unt": 1712, " six": 1713, "old": 1714, " wide": 1715, " ir": 1716, " cent": 1717, " quite": 1718, "pted": 1719, " anymore": 1720, " afraid": 1721, " reco": 1722, "ates": 1723, "ilt": 1724, "was": 1725, " several": 1726, "medi": 1727, "cc": 1728, " case": 1729, "form": 1730, " young": 1731, " secret": 1732, " wearing": 1733, " touched": 1734, " smell": 1735, " anyway": 1736, " mem": 1737, "because": 1738, " squee": 1739, " tone": 1740, " minute": 1741, " beneath": 1742, "ute": 1743, " thanks": 1744, " demand": 1745, " guard": 1746, " box": 1747, " surprised": 1748, " nearly": 1749, " answered": 1750, "itely": 1751, " large": 1752, "elle": 1753, " stuff": 1754, "als": 1755, " tu": 1756, " raised": 1757, " shar": 1758, " lead": 1759, "ony": 1760, "ots": 1761, "la": 1762, " waited": 1763, "did": 1764, " rele": 1765, " corner": 1766, "ield": 1767, " pick": 1768, " sort": 1769, "icking": 1770, " ball": 1771, " changed": 1772, " girls": 1773, " hey": 1774, "light": 1775, " walking": 1776, " stupid": 1777, "ces": 1778, "pec": 1779, " twenty": 1780, " rep": 1781, "ery": 1782, " conversation": 1783, " scr": 1784, " replied": 1785, "ience": 1786, " form": 1787, " eat": 1788, "of": 1789, " luck": 1790, " disc": 1791, "aces": 1792, " seem": 1793, "ara": 1794, "irty": 1795, "imes": 1796, " spec": 1797, " weeks": 1798, " immedi": 1799, " zane": 1800, " jaw": 1801, " posit": 1802, " nar": 1803, " drag": 1804, " silence": 1805, " trou": 1806, " cam": 1807, " sad": 1808, "well": 1809, " grinned": 1810, " rather": 1811, "ding": 1812, "vin": 1813, " doubt": 1814, " cla": 1815, " gently": 1816, "aughter": 1817, " gen": 1818, " ext": 1819, " exper": 1820, "lex": 1821, "yes": 1822, " possible": 1823, " spoke": 1824, " thick": 1825, " heat": 1826, " spent": 1827, " hus": 1828, " eng": 1829, " thigh": 1830, " swall": 1831, " loud": 1832, " returned": 1833, " relation": 1834, " ring": 1835, "pecially": 1836, " bright": 1837, " chin": 1838, "iew": 1839, " danger": 1840, " sounded": 1841, " crazy": 1842, " jul": 1843, " rock": 1844, "ex": 1845, " figure": 1846, " problem": 1847, " wet": 1848, " murm": 1849, " die": 1850, "aning": 1851, " gotten": 1852, "tom": 1853, " agre": 1854, " surprise": 1855, " yell": 1856, "lan": 1857, " conn": 1858, " passed": 1859, "ili": 1860, " gasp": 1861, " empt": 1862, " food": 1863, "ator": 1864, " cho": 1865, " cool": 1866, "iddle": 1867, "ident": 1868, " shad": 1869, "itch": 1870, "band": 1871, " throw": 1872, " bathroom": 1873, "rie": 1874, "aled": 1875, "uss": 1876, " narrow": 1877, " wed": 1878, " sight": 1879, " crow": 1880, " others": 1881, "ipp": 1882, "aining": 1883, " norm": 1884, " sear": 1885, " concer": 1886, "amed": 1887, " forget": 1888, " muttered": 1889, " wondered": 1890, " hesit": 1891, "aped": 1892, " nat": 1893, " finished": 1894, " nose": 1895, " opp": 1896, "umbled": 1897, "ift": 1898, " simply": 1899, " susp": 1900, "ign": 1901, " glad": 1902, "ric": 1903, " du": 1904, " relax": 1905, " green": 1906, " beat": 1907, " demon": 1908, "gu": 1909, "than": 1910, "su": 1911, " den": 1912, " middle": 1913, "ails": 1914, " clim": 1915, "finitely": 1916, " )": 1917, " tast": 1918, " pock": 1919, " wants": 1920, "inst": 1921, " married": 1922, " turning": 1923, " sigh": 1924, " knows": 1925, " worried": 1926, " become": 1927, " import": 1928, "come": 1929, " immediately": 1930, " noticed": 1931, " id": 1932, " arri": 1933, "morrow": 1934, " count": 1935, " tomorrow": 1936, " promise": 1937, " slightly": 1938, " fav": 1939, " letting": 1940, " spot": 1941, " sal": 1942, "zed": 1943, " sel": 1944, " angry": 1945, "att": 1946, " stud": 1947, " wood": 1948, "oul": 1949, " drew": 1950, "land": 1951, " serious": 1952, "arr": 1953, " reach": 1954, " gun": 1955, " above": 1956, " broke": 1957, "ometimes": 1958, "cles": 1959, " building": 1960, " anger": 1961, "right": 1962, " killed": 1963, " lie": 1964, " mention": 1965, "ones": 1966, " heavy": 1967, " comfort": 1968, " leg": 1969, " gold": 1970, " wish": 1971, " headed": 1972, " expected": 1973, " stri": 1974, "rif": 1975, " snapped": 1976, " bother": 1977, "wor": 1978, " calm": 1979, "ision": 1980, " hate": 1981, " party": 1982, "haps": 1983, " toss": 1984, " daughter": 1985, "oring": 1986, " worse": 1987, " dar": 1988, " sett": 1989, " cheeks": 1990, " lap": 1991, "ists": 1992, " stare": 1993, " covered": 1994, "ache": 1995, "ively": 1996, " kids": 1997, " shout": 1998, " forced": 1999, " situ": 2000, "umber": 2001, " creat": 2002, " gar": 2003, " threat": 2004, " desire": 2005, "ains": 2006, " apartment": 2007, "cing": 2008, " pan": 2009, " threw": 2010, " check": 2011, " meeting": 2012, "ctor": 2013, " tiny": 2014, " fair": 2015, " jeans": 2016, " relationship": 2017, " steps": 2018, " adv": 2019, " desper": 2020, " pointed": 2021, " shower": 2022, "vous": 2023, " earl": 2024, " fem": 2025, " (": 2026, " crowd": 2027, " ur": 2028, "iting": 2029, " nod": 2030, " empty": 2031, " gent": 2032, "bered": 2033, "aded": 2034, "unk": 2035, "ipping": 2036, " chuck": 2037, "lle": 2038, "ines": 2039, "aint": 2040, " priv": 2041, " street": 2042, " gray": 2043, " died": 2044, " managed": 2045, " wanting": 2046, " wild": 2047, "ibly": 2048, "teen": 2049, " single": 2050, " pack": 2051, " cover": 2052, " art": 2053, " self": 2054, "ann": 2055, " added": 2056, " amaz": 2057, "ster": 2058, " hated": 2059, "ucked": 2060, "mb": 2061, "ances": 2062, " frowned": 2063, " spread": 2064, " led": 2065, "sel": 2066, " quietly": 2067, " definitely": 2068, " important": 2069, " tot": 2070, " book": 2071, " road": 2072, "iam": 2073, "ha": 2074, " force": 2075, " favor": 2076, " bottom": 2077, " order": 2078, "once": 2079, " eyeb": 2080, "aniel": 2081, " couch": 2082, "sy": 2083, " game": 2084, "ped": 2085, " husband": 2086, " scent": 2087, " occ": 2088, "lyn": 2089, " king": 2090, "sts": 2091, " children": 2092, " willing": 2093, " class": 2094, " ord": 2095, " fut": 2096, " sounds": 2097, " respond": 2098, " seconds": 2099, " direction": 2100, " stret": 2101, " cas": 2102, " sol": 2103, "ient": 2104, "ney": 2105, " pun": 2106, " during": 2107, "ndred": 2108, "erg": 2109, " dest": 2110, "oss": 2111, " stairs": 2112, " honest": 2113, " sick": 2114, " lim": 2115, " lose": 2116, "olog": 2117, " lying": 2118, " paused": 2119, "ments": 2120, " rid": 2121, "erm": 2122, "tw": 2123, " glance": 2124, " christ": 2125, " deser": 2126, " ble": 2127, " story": 2128, " takes": 2129, " pract": 2130, "ining": 2131, " ian": 2132, " realize": 2133, " except": 2134, "ities": 2135, "zz": 2136, " remembered": 2137, " number": 2138, "set": 2139, "iling": 2140, " soul": 2141, " eyebrow": 2142, " asking": 2143, " magic": 2144, "ars": 2145, " situation": 2146, " cell": 2147, "ring": 2148, "instead": 2149, " means": 2150, " space": 2151, " choice": 2152, "something": 2153, " broken": 2154, " cock": 2155, "asm": 2156, "before": 2157, " trouble": 2158, "aling": 2159, " catch": 2160, " mer": 2161, " strange": 2162, " dep": 2163, "ailed": 2164, " sharp": 2165, "udd": 2166, " slam": 2167, " counter": 2168, " silent": 2169, " hoping": 2170, " mil": 2171, " suit": 2172, " laughing": 2173, "inked": 2174, " slipped": 2175, " repe": 2176, " shaking": 2177, " fit": 2178, " firm": 2179, " gentle": 2180, " lower": 2181, " huge": 2182, " wid": 2183, "ca": 2184, " whisper": 2185, " coo": 2186, "asing": 2187, " worth": 2188, " cab": 2189, "ucking": 2190, "aff": 2191, " naked": 2192, " keeping": 2193, " mark": 2194, " nervous": 2195, " date": 2196, " position": 2197, " pants": 2198, " und": 2199, " comes": 2200, " hide": 2201, "fl": 2202, "ope": 2203, " ris": 2204, " paper": 2205, " hundred": 2206, "ecting": 2207, " ma": 2208, " wedding": 2209, " weak": 2210, " inform": 2211, " missed": 2212, " compl": 2213, "rying": 2214, "esh": 2215, " summ": 2216, "igg": 2217, " clen": 2218, "fer": 2219, " playing": 2220, " clean": 2221, " cup": 2222, " forehead": 2223, " pen": 2224, " vampires": 2225, " piece": 2226, " murmured": 2227, " emotion": 2228, " taste": 2229, " expect": 2230, " clearly": 2231, " recogn": 2232, "ager": 2233, " tall": 2234, "ls": 2235, "ital": 2236, " forgot": 2237, " grace": 2238, " smiling": 2239, " city": 2240, " tow": 2241, " bas": 2242, "gging": 2243, " mis": 2244, " future": 2245, " locked": 2246, " within": 2247, "ices": 2248, "rit": 2249, " sugg": 2250, "ler": 2251, " lady": 2252, " prete": 2253, " crossed": 2254, " fold": 2255, " push": 2256, " explain": 2257, " earlier": 2258, " pound": 2259, " ann": 2260, " handle": 2261, " agreed": 2262, "orted": 2263, "orge": 2264, " kno": 2265, " hoped": 2266, "rian": 2267, " cond": 2268, " prep": 2269, " state": 2270, " pill": 2271, " tired": 2272, "cious": 2273, " ethan": 2274, "ract": 2275, "body": 2276, "ishing": 2277, " strugg": 2278, " picture": 2279, "aked": 2280, " imagine": 2281, " breathing": 2282, " became": 2283, " scared": 2284, " sof": 2285, " reve": 2286, " doors": 2287, " ash": 2288, " thumb": 2289, " questions": 2290, " forever": 2291, " placed": 2292, " shifted": 2293, " blank": 2294, " obviously": 2295, "ination": 2296, " news": 2297, " pocket": 2298, " sexy": 2299, " alive": 2300, " vict": 2301, " val": 2302, " fro": 2303, "who": 2304, " talked": 2305, " lock": 2306, "ards": 2307, " fuck": 2308, "had": 2309, " brown": 2310, " truck": 2311, " bill": 2312, " shake": 2313, "sc": 2314, " flat": 2315, " early": 2316, "stairs": 2317, " pet": 2318, " stren": 2319, " appre": 2320, " assum": 2321, " emb": 2322, " invol": 2323, " pin": 2324, " eight": 2325, " spend": 2326, " lived": 2327, " jumped": 2328, " fill": 2329, "ior": 2330, "ustr": 2331, "isf": 2332, " wondering": 2333, " needs": 2334, "ho": 2335, " offered": 2336, "bs": 2337, " spl": 2338, " direct": 2339, "owers": 2340, " evening": 2341, " max": 2342, "ella": 2343, " pair": 2344, "iliar": 2345, " appeared": 2346, " weight": 2347, " listen": 2348, " danc": 2349, "pite": 2350, "izing": 2351, " harder": 2352, " normal": 2353, " logan": 2354, "osp": 2355, " fix": 2356, " med": 2357, " settled": 2358, "ached": 2359, " stone": 2360, "mar": 2361, " gon": 2362, " brief": 2363, "tern": 2364, "yond": 2365, " especially": 2366, " somehow": 2367, " club": 2368, "ude": 2369, " pu": 2370, " blond": 2371, " def": 2372, " information": 2373, " color": 2374, " shock": 2375, " company": 2376, " ones": 2377, " brain": 2378, "str": 2379, " dom": 2380, "rible": 2381, " somewhere": 2382, "olute": 2383, "sure": 2384, " boo": 2385, "tic": 2386, " stayed": 2387, "tering": 2388, " dressed": 2389, " kissing": 2390, "ev": 2391, "ressed": 2392, "oof": 2393, " vi": 2394, " avo": 2395, " fif": 2396, " save": 2397, " blinked": 2398, " strength": 2399, "ested": 2400, "here": 2401, " wore": 2402, " busy": 2403, " cried": 2404, " offer": 2405, " fly": 2406, " ry": 2407, " view": 2408, " focus": 2409, " capt": 2410, " follow": 2411, " figured": 2412, " wip": 2413, "acy": 2414, " feelings": 2415, " prof": 2416, "ray": 2417, "rence": 2418, "achel": 2419, "which": 2420, "imed": 2421, " wel": 2422, "ulous": 2423, " muscles": 2424, "res": 2425, " incl": 2426, "ene": 2427, " relief": 2428, " putting": 2429, " allowed": 2430, " dance": 2431, " male": 2432, " nick": 2433, " dry": 2434, " distance": 2435, "ault": 2436, " round": 2437, " none": 2438, " wine": 2439, " center": 2440, " memory": 2441, " sand": 2442, " swallowed": 2443, " bent": 2444, "riage": 2445, " queen": 2446, " lucky": 2447, " unc": 2448, "reen": 2449, "uct": 2450, " aware": 2451, " bull": 2452, "still": 2453, " wound": 2454, " thrust": 2455, " showed": 2456, " jake": 2457, " handed": 2458, " lord": 2459, " cast": 2460, " breast": 2461, "noon": 2462, "onse": 2463, "bes": 2464, " asks": 2465, " helped": 2466, "god": 2467, " easily": 2468, " aside": 2469, "inn": 2470, "inct": 2471, "loo": 2472, " send": 2473, " beyond": 2474, "otions": 2475, "que": 2476, " bell": 2477, "avid": 2478, " gather": 2479, " appreci": 2480, " determ": 2481, " seems": 2482, " tru": 2483, "dam": 2484, " beginning": 2485, " stu": 2486, "loe": 2487, " pul": 2488, " effort": 2489, " walls": 2490, " contact": 2491, " sometimes": 2492, "yn": 2493, " treat": 2494, " circ": 2495, " drop": 2496, " area": 2497, " understood": 2498, "zane": 2499, " thighs": 2500, " delic": 2501, " demanded": 2502, " mirror": 2503, " shoved": 2504, " ahead": 2505, " grip": 2506, " wear": 2507, "selves": 2508, "ants": 2509, " satisf": 2510, " grou": 2511, "ific": 2512, "only": 2513, " discuss": 2514, " whether": 2515, "idence": 2516, " bottle": 2517, " ended": 2518, " afternoon": 2519, " personal": 2520, "your": 2521, " ride": 2522, " fil": 2523, "ection": 2524, " phot": 2525, " dog": 2526, " pour": 2527, " ver": 2528, " kisses": 2529, " response": 2530, " falling": 2531, " odd": 2532, " flesh": 2533, " pink": 2534, " ta": 2535, " conv": 2536, " luke": 2537, " share": 2538, " yours": 2539, "abeth": 2540, "shirt": 2541, " using": 2542, " grew": 2543, "nothing": 2544, " music": 2545, " pregn": 2546, " hunter": 2547, " sweat": 2548, " belong": 2549, " attem": 2550, "while": 2551, "leep": 2552, "ages": 2553, " cru": 2554, "rac": 2555, " surround": 2556, " attack": 2557, " calling": 2558, "usion": 2559, " memor": 2560, " law": 2561, "ises": 2562, " special": 2563, " gest": 2564, "ession": 2565, " event": 2566, " embarr": 2567, " palm": 2568, " loc": 2569, " requ": 2570, " learned": 2571, " twisted": 2572, " rubbed": 2573, " phys": 2574, " amazing": 2575, " ears": 2576, " jen": 2577, "time": 2578, " hosp": 2579, " sleeping": 2580, " gasped": 2581, " often": 2582, " notice": 2583, " fighting": 2584, " carefully": 2585, " reminded": 2586, " mel": 2587, " cu": 2588, " absolute": 2589, " smooth": 2590, " brushed": 2591, "kes": 2592, "ative": 2593, " van": 2594, " enjoy": 2595, " bow": 2596, " bal": 2597, " gets": 2598, "yle": 2599, " path": 2600, "iot": 2601, " familiar": 2602, " arrived": 2603, " grim": 2604, " bitch": 2605, " mov": 2606, "arently": 2607, "shit": 2608, " darkness": 2609, " older": 2610, " nor": 2611, " boys": 2612, "friend": 2613, " bite": 2614, " angel": 2615, " frustr": 2616, "ousand": 2617, "astic": 2618, " starting": 2619, " const": 2620, " tightened": 2621, "fast": 2622, " dangerous": 2623, " store": 2624, " lives": 2625, " alex": 2626, " regret": 2627, " drove": 2628, " ice": 2629, " silver": 2630, " weird": 2631, "fic": 2632, " shoot": 2633, " truly": 2634, "ierce": 2635, " bir": 2636, " serv": 2637, " band": 2638, " rain": 2639, "aves": 2640, " pushing": 2641, " fle": 2642, "kend": 2643, " hospital": 2644, " ell": 2645, "cted": 2646, " private": 2647, " jerked": 2648, " pot": 2649, " tip": 2650, " seriously": 2651, "arm": 2652, " perhaps": 2653, " elb": 2654, " groaned": 2655, " earth": 2656, " usually": 2657, "ses": 2658, "ension": 2659, " feels": 2660, " mas": 2661, " simple": 2662, " command": 2663, " note": 2664, " mid": 2665, " rough": 2666, " burst": 2667, " curled": 2668, "luc": 2669, " track": 2670, "lic": 2671, " touching": 2672, " stiff": 2673, " cre": 2674, " pale": 2675, " further": 2676, " sucked": 2677, " stuck": 2678, " laid": 2679, " trave": 2680, " squeezed": 2681, "val": 2682, " lights": 2683, " la": 2684, " rom": 2685, "die": 2686, " surv": 2687, " female": 2688, " camer": 2689, " mass": 2690, "ald": 2691, " explained": 2692, " accept": 2693, " narrowed": 2694, "izabeth": 2695, "usted": 2696, " obvious": 2697, " heal": 2698, " certainly": 2699, " leather": 2700, " dim": 2701, " cand": 2702, " incred": 2703, "line": 2704, "bled": 2705, "con": 2706, " laught": 2707, " bod": 2708, " thousand": 2709, " laughter": 2710, " wake": 2711, " thin": 2712, " visit": 2713, " hotel": 2714, "two": 2715, " partic": 2716, " police": 2717, " considered": 2718, "asted": 2719, "par": 2720, " level": 2721, " breathe": 2722, " sar": 2723, " cop": 2724, " fool": 2725, " honey": 2726, " test": 2727, " wished": 2728, " shoes": 2729, " disco": 2730, "miss": 2731, " hanging": 2732, " reaction": 2733, "please": 2734, " totally": 2735, " tossed": 2736, " sav": 2737, " hallway": 2738, " asleep": 2739, " soph": 2740, " wee": 2741, "mer": 2742, " sword": 2743, " remained": 2744, "cho": 2745, "ote": 2746, "imp": 2747, " interested": 2748, " happening": 2749, " enc": 2750, " trans": 2751, " apolog": 2752, "emon": 2753, " tear": 2754, " fresh": 2755, "rupt": 2756, "iled": 2757, " anywhere": 2758, " suff": 2759, " summer": 2760, " scar": 2761, " growled": 2762, " funny": 2763, " mill": 2764, "rid": 2765, " birth": 2766, " mood": 2767, " repeated": 2768, " sen": 2769, "ural": 2770, "oint": 2771, " study": 2772, " group": 2773, " promised": 2774, " clenched": 2775, " key": 2776, "idden": 2777, " matt": 2778, "orgeous": 2779, "from": 2780, "can": 2781, " powerful": 2782, " ways": 2783, "ker": 2784, " daniel": 2785, "oming": 2786, " finish": 2787, " suck": 2788, " jacket": 2789, " opening": 2790, " anim": 2791, " diffic": 2792, " upon": 2793, " usual": 2794, " imposs": 2795, " disappeared": 2796, " motion": 2797, " super": 2798, " warning": 2799, "iana": 2800, "andon": 2801, "ries": 2802, " 1": 2803, " likely": 2804, " ignored": 2805, " perfectly": 2806, " moments": 2807, " lunch": 2808, "bel": 2809, " beer": 2810, " gorgeous": 2811, "umped": 2812, "oc": 2813, "pper": 2814, " excuse": 2815, " appear": 2816, "ana": 2817, " lowered": 2818, " decision": 2819, "allen": 2820, " charl": 2821, " careful": 2822, " bast": 2823, "night": 2824, "tr": 2825, "urity": 2826, " godd": 2827, " emotions": 2828, " buy": 2829, " pulls": 2830, " experience": 2831, " ill": 2832, " gift": 2833, " carried": 2834, " intim": 2835, "anted": 2836, "would": 2837, " comfortable": 2838, " len": 2839, " cleared": 2840, " age": 2841, "roud": 2842, " towards": 2843, " turns": 2844, " shouted": 2845, " believed": 2846, " brothers": 2847, " upset": 2848, "cla": 2849, " eric": 2850, " pub": 2851, "without": 2852, " gener": 2853, "since": 2854, "gl": 2855, " entered": 2856, " feat": 2857, "tense": 2858, " warri": 2859, "ael": 2860, " inno": 2861, " missing": 2862, " stick": 2863, " trail": 2864, "ron": 2865, " crack": 2866, "ics": 2867, " weap": 2868, " goes": 2869, "finally": 2870, " marry": 2871, " rich": 2872, " destro": 2873, " tremb": 2874, " favorite": 2875, "ges": 2876, "comfort": 2877, " leaning": 2878, " crying": 2879, " brow": 2880, " pissed": 2881, "fortun": 2882, " ut": 2883, "car": 2884, " proper": 2885, " button": 2886, " learn": 2887, "looking": 2888, " park": 2889, "ius": 2890, " beauty": 2891, "will": 2892, " marriage": 2893, "uce": 2894, " driving": 2895, " however": 2896, " weekend": 2897, " agree": 2898, " played": 2899, " equ": 2900, " finding": 2901, "cher": 2902, "vy": 2903, " dig": 2904, " wave": 2905, " fault": 2906, " thirty": 2907, " gigg": 2908, "ico": 2909, " allow": 2910, " energ": 2911, " deeper": 2912, " chuckled": 2913, " stun": 2914, "kin": 2915, "ived": 2916, " consider": 2917, " gut": 2918, " ol": 2919, " windows": 2920, "ledge": 2921, " jud": 2922, " belly": 2923, " trent": 2924, " flash": 2925, " instantly": 2926, "ivered": 2927, " focused": 2928, "ashing": 2929, " involved": 2930, "aur": 2931, " hea": 2932, " anno": 2933, "hun": 2934, " rush": 2935, " released": 2936, " team": 2937, "des": 2938, "jack": 2939, "unity": 2940, "asy": 2941, " challen": 2942, " text": 2943, " lift": 2944, " gab": 2945, " noah": 2946, " breathed": 2947, "ancy": 2948, "alous": 2949, " chase": 2950, " slammed": 2951, " doctor": 2952, " concern": 2953, " fought": 2954, " memories": 2955, " lean": 2956, "gie": 2957, " refused": 2958, "everything": 2959, " coat": 2960, "zen": 2961, " mort": 2962, " slept": 2963, " gage": 2964, " difficult": 2965, " planned": 2966, " respons": 2967, " confused": 2968, " flashed": 2969, "ug": 2970, " passion": 2971, " escape": 2972, "oe": 2973, "ser": 2974, "oll": 2975, " tree": 2976, " dru": 2977, " pop": 2978, " energy": 2979, " burned": 2980, " present": 2981, " kat": 2982, " inch": 2983, " losing": 2984, " doorway": 2985, " tightly": 2986, " spell": 2987, "ounced": 2988, "izz": 2989, " bra": 2990, " shared": 2991, " plans": 2992, " david": 2993, "ston": 2994, " prop": 2995, "sl": 2996, " although": 2997, " proud": 2998, " mrs": 2999, " presence": 3000, " speaking": 3001, "besides": 3002, " intense": 3003, " growing": 3004, "eric": 3005, "racted": 3006, " offic": 3007, " uncle": 3008, " til": 3009, " gives": 3010, "osh": 3011, " possess": 3012, " heels": 3013, " message": 3014, "ded": 3015, " screamed": 3016, " elev": 3017, " wrist": 3018, " kicked": 3019, " security": 3020, " uh": 3021, " swear": 3022, " pool": 3023, " hug": 3024, " concerned": 3025, " fully": 3026, " main": 3027, " sliding": 3028, "aph": 3029, " particular": 3030, " absolutely": 3031, " breakfast": 3032, " shudd": 3033, " smart": 3034, "oy": 3035, " colt": 3036, " excited": 3037, " yan": 3038, " impossible": 3039, " prov": 3040, " adm": 3041, " viol": 3042, " screen": 3043, " knife": 3044, " chloe": 3045, " bodies": 3046, " restaur": 3047, "under": 3048, "using": 3049, " isab": 3050, " boyfriend": 3051, "ified": 3052, " blind": 3053, " waved": 3054, "ibility": 3055, " kick": 3056, " mere": 3057, " fant": 3058, " worst": 3059, "ste": 3060, "ts": 3061, " warmth": 3062, " fist": 3063, " pregnant": 3064, " suc": 3065, " battle": 3066, " staying": 3067, " guest": 3068, " faster": 3069, " humans": 3070, "stand": 3071, "another": 3072, " shop": 3073, " peace": 3074, "hen": 3075, " knock": 3076, " sink": 3077, " master": 3078, " colle": 3079, " studied": 3080, " oppos": 3081, "oose": 3082, " extra": 3083, "ball": 3084, "rod": 3085, " sides": 3086, "icated": 3087, " risk": 3088, "rified": 3089, "ading": 3090, " desperate": 3091, "bast": 3092, " cook": 3093, " unable": 3094, "ubb": 3095, " mal": 3096, " neither": 3097, " trees": 3098, "ey": 3099, " wit": 3100, "never": 3101, " surf": 3102, "hell": 3103, "eding": 3104, " mistake": 3105, "mother": 3106, "off": 3107, " mot": 3108, "itched": 3109, "lfr": 3110, " acce": 3111, " trip": 3112, " clut": 3113, " boss": 3114, " storm": 3115, " blake": 3116, "anging": 3117, "thy": 3118, "ris": 3119, " beg": 3120, " sed": 3121, " smir": 3122, " horse": 3123, " ling": 3124, " places": 3125, "iving": 3126, " port": 3127, "see": 3128, " arr": 3129, " hat": 3130, " wonderful": 3131, "thank": 3132, " stretched": 3133, " subject": 3134, " ah": 3135, " ordered": 3136, "ives": 3137, " remo": 3138, " handsome": 3139, " imm": 3140, " skirt": 3141, " doll": 3142, " photo": 3143, " mate": 3144, "top": 3145, "inging": 3146, " admitted": 3147, "ini": 3148, " jason": 3149, " purp": 3150, " fa": 3151, " soc": 3152, " snow": 3153, " purse": 3154, " length": 3155, " instinct": 3156, " cabin": 3157, "mas": 3158, " cared": 3159, " relaxed": 3160, "lfriend": 3161, " knee": 3162, " rul": 3163, " despite": 3164, " steady": 3165, "rem": 3166, " loose": 3167, " effect": 3168, " easier": 3169, " jealous": 3170, "aging": 3171, " hungry": 3172, " nipp": 3173, " heading": 3174, " prin": 3175, " following": 3176, " possibly": 3177, " paid": 3178, " hesitated": 3179, " mike": 3180, " plate": 3181, " bought": 3182, " vision": 3183, " magn": 3184, " pressing": 3185, " below": 3186, "rel": 3187, " circle": 3188, "hood": 3189, "sam": 3190, " por": 3191, " reaching": 3192, " fallen": 3193, "itement": 3194, "vent": 3195, "good": 3196, " bear": 3197, "ners": 3198, "omed": 3199, " stor": 3200, "ues": 3201, "damn": 3202, " parking": 3203, " type": 3204, " dreams": 3205, " continue": 3206, " ow": 3207, " defe": 3208, " rece": 3209, " themselves": 3210, " butt": 3211, " lou": 3212, "board": 3213, "fortunately": 3214, " spir": 3215, " decide": 3216, " eager": 3217, " welcome": 3218, " fucking": 3219, " echo": 3220, " org": 3221, " hi": 3222, " listening": 3223, " lad": 3224, " dear": 3225, "da": 3226, " screw": 3227, " cass": 3228, " don": 3229, " flick": 3230, " sne": 3231, " movie": 3232, " cash": 3233, "jul": 3234, " bound": 3235, " climbed": 3236, " ment": 3237, " breaking": 3238, " glared": 3239, "idge": 3240, " clay": 3241, " card": 3242, "antic": 3243, " noise": 3244, " features": 3245, " caused": 3246, " forgotten": 3247, "agged": 3248, "athan": 3249, " brows": 3250, " unless": 3251, " beach": 3252, " nur": 3253, "terday": 3254, " shadow": 3255, " moon": 3256, " dust": 3257, " adam": 3258, "lin": 3259, "cri": 3260, " boots": 3261, " image": 3262, " explo": 3263, " elizabeth": 3264, "aming": 3265, " simon": 3266, " driver": 3267, " fab": 3268, " panties": 3269, " panic": 3270, "anda": 3271, " opposite": 3272, "dom": 3273, "ordan": 3274, " twice": 3275, " slide": 3276, " suggest": 3277, " craw": 3278, " determined": 3279, " mount": 3280, " burning": 3281, " div": 3282, " hiding": 3283, " blame": 3284, "kward": 3285, " scow": 3286, " metal": 3287, "iona": 3288, " seven": 3289, " jon": 3290, "rett": 3291, "bastian": 3292, " vo": 3293, "yal": 3294, " dare": 3295, "pting": 3296, "okay": 3297, "iety": 3298, " grasp": 3299, " accident": 3300, "den": 3301, " corre": 3302, " includ": 3303, " bastard": 3304, " necess": 3305, " rushed": 3306, " invest": 3307, " tab": 3308, " restaurant": 3309, " third": 3310, " tort": 3311, " eyebrows": 3312, "illy": 3313, "ob": 3314, " release": 3315, " hardly": 3316, " showing": 3317, " pee": 3318, " blow": 3319, " camp": 3320, " shocked": 3321, " mia": 3322, " woke": 3323, " lovely": 3324, " hello": 3325, "alk": 3326, " buck": 3327, " swung": 3328, " prefer": 3329, " tension": 3330, " tugged": 3331, " process": 3332, " rad": 3333, "ensive": 3334, " inde": 3335, " drunk": 3336, " public": 3337, " forth": 3338, " girlfriend": 3339, " caress": 3340, " aunt": 3341, " excitement": 3342, " uncomfort": 3343, " lun": 3344, " antic": 3345, "isa": 3346, "ency": 3347, " tender": 3348, " prince": 3349, " respect": 3350, " rachel": 3351, "gar": 3352, "atic": 3353, " jase": 3354, " hearing": 3355, " lex": 3356, " bringing": 3357, "ping": 3358, " blur": 3359, " court": 3360, " rib": 3361, " trick": 3362, "otte": 3363, "lu": 3364, " widened": 3365, " tucked": 3366, "attered": 3367, " victor": 3368, " psy": 3369, " join": 3370, " college": 3371, " hint": 3372, "iculous": 3373, " reply": 3374, " arched": 3375, " inf": 3376, " entr": 3377, " awkward": 3378, " ge": 3379, "play": 3380, " jace": 3381, " lat": 3382, "wise": 3383, " vib": 3384, " badly": 3385, " comput": 3386, " dirty": 3387, " wolf": 3388, " pictures": 3389, " exha": 3390, " considering": 3391, " ceiling": 3392, " song": 3393, " gard": 3394, "ashes": 3395, "annah": 3396, " cream": 3397, " ren": 3398, " directly": 3399, "lec": 3400, " field": 3401, " deeply": 3402, " helping": 3403, " tick": 3404, " purpose": 3405, " jax": 3406, " imagined": 3407, " shall": 3408, " golden": 3409, " hidden": 3410, " pressure": 3411, " licked": 3412, "ieved": 3413, " dragged": 3414, " final": 3415, " claim": 3416, " reading": 3417, " yesterday": 3418, " spark": 3419, " witch": 3420, " sending": 3421, "case": 3422, "hn": 3423, " opt": 3424, " towel": 3425, " speed": 3426, " huh": 3427, " checked": 3428, "centr": 3429, " support": 3430, "ka": 3431, " mix": 3432, " lightly": 3433, " tex": 3434, " books": 3435, "ury": 3436, " urge": 3437, " ignore": 3438, " happens": 3439, " calls": 3440, " experien": 3441, "itive": 3442, " rap": 3443, " inj": 3444, " aut": 3445, "key": 3446, " convin": 3447, " lab": 3448, "house": 3449, " comment": 3450, " dick": 3451, " interru": 3452, "back": 3453, " blo": 3454, " buried": 3455, " separ": 3456, " hip": 3457, " greet": 3458, "ills": 3459, " tele": 3460, " entirely": 3461, " irrit": 3462, " pleased": 3463, " poor": 3464, "ford": 3465, " sensation": 3466, " grate": 3467, "elia": 3468, " opport": 3469, " pray": 3470, " yelled": 3471, " prepared": 3472, " vibr": 3473, "zing": 3474, " aff": 3475, "bye": 3476, "work": 3477, "father": 3478, " ni": 3479, " elevator": 3480, " searching": 3481, " mic": 3482, " shadows": 3483, " scene": 3484, " island": 3485, "lessly": 3486, " attempt": 3487, "over": 3488, "pro": 3489, " jew": 3490, "ades": 3491, " --": 3492, " fingert": 3493, " mentioned": 3494, "tell": 3495, " cous": 3496, " spun": 3497, "everyone": 3498, " evil": 3499, " concentr": 3500, " mac": 3501, " wings": 3502, "men": 3503, " folded": 3504, " sexual": 3505, " prove": 3506, "itude": 3507, " anticip": 3508, " faint": 3509, " born": 3510, "those": 3511, " deb": 3512, " pieces": 3513, "ork": 3514, " christmas": 3515, "yeah": 3516, "ait": 3517, "inting": 3518, " vir": 3519, "ama": 3520, " hy": 3521, "aine": 3522, " temper": 3523, " itself": 3524, " avoid": 3525, " suspic": 3526, "call": 3527, " gripped": 3528, " rested": 3529, " rob": 3530, " board": 3531, "nday": 3532, " rang": 3533, " loving": 3534, " arg": 3535, " practically": 3536, "idding": 3537, " expecting": 3538, " resist": 3539, " spr": 3540, " hig": 3541, " smiles": 3542, " pretend": 3543, " killing": 3544, " cow": 3545, " unf": 3546, " exh": 3547, " tang": 3548, " tun": 3549, " luis": 3550, "real": 3551, " current": 3552, " accom": 3553, " pause": 3554, "aly": 3555, "ago": 3556, "aching": 3557, " anx": 3558, " exam": 3559, " wheel": 3560, " heaven": 3561, " curt": 3562, "vet": 3563, " thinks": 3564, " slip": 3565, "reme": 3566, "ils": 3567, " demons": 3568, " ridiculous": 3569, "iolet": 3570, " hol": 3571, "aul": 3572, " eating": 3573, "oot": 3574, " knocked": 3575, "ichael": 3576, "ety": 3577, "their": 3578, " teasing": 3579, " sin": 3580, " pure": 3581, " stab": 3582, "rek": 3583, " hen": 3584, " approached": 3585, "someone": 3586, "pet": 3587, " flew": 3588, " glare": 3589, "could": 3590, "although": 3591, " rare": 3592, " chick": 3593, " cloud": 3594, " upstairs": 3595, "ausing": 3596, "asion": 3597, " grown": 3598, " brand": 3599, "roll": 3600, " lines": 3601, " spine": 3602, " disg": 3603, " cree": 3604, " enem": 3605, "ointment": 3606, " among": 3607, " moaned": 3608, " regard": 3609, " tilted": 3610, " est": 3611, " jam": 3612, "yer": 3613, " prison": 3614, "ids": 3615, " computer": 3616, "iday": 3617, " cost": 3618, " trist": 3619, " kate": 3620, " writ": 3621, " aud": 3622, " exist": 3623, " appreciate": 3624, "aper": 3625, " staff": 3626, " warned": 3627, " keys": 3628, "ague": 3629, " froze": 3630, " terrible": 3631, " fifteen": 3632, "whate": 3633, " var": 3634, "whatever": 3635, " joined": 3636, " ting": 3637, " thor": 3638, " firmly": 3639, " james": 3640, " closet": 3641, " base": 3642, " swept": 3643, "irst": 3644, " ju": 3645, " sha": 3646, "sm": 3647, " solid": 3648, "iley": 3649, " instant": 3650, " wand": 3651, " hist": 3652, " double": 3653, "ume": 3654, " entrance": 3655, "fit": 3656, " interesting": 3657, " gle": 3658, " reasons": 3659, " post": 3660, " mostly": 3661, " planning": 3662, " block": 3663, " sold": 3664, " reality": 3665, " betray": 3666, " apparently": 3667, " rising": 3668, "stem": 3669, "ern": 3670, " guilt": 3671, " physical": 3672, " fu": 3673, "again": 3674, "ighb": 3675, " backward": 3676, "view": 3677, "heart": 3678, " eventually": 3679, "unted": 3680, "ented": 3681, " sip": 3682, " recognized": 3683, " neighb": 3684, "bbing": 3685, " vol": 3686, " drawing": 3687, " shield": 3688, " enjoyed": 3689, " hoo": 3690, " awake": 3691, " crap": 3692, " fang": 3693, " ava": 3694, "bers": 3695, " soot": 3696, "neath": 3697, " arou": 3698, "ground": 3699, " country": 3700, "andra": 3701, " fierce": 3702, "fuck": 3703, " pillow": 3704, " rage": 3705, " emma": 3706, " harm": 3707, " glasses": 3708, "hunter": 3709, " rum": 3710, " pad": 3711, " system": 3712, " claire": 3713, " numb": 3714, " viv": 3715, "cil": 3716, " fright": 3717, " maj": 3718, " dra": 3719, " chat": 3720, " landed": 3721, " details": 3722, "nat": 3723, " fort": 3724, " non": 3725, " stir": 3726, " tatt": 3727, " listened": 3728, " drif": 3729, " comb": 3730, " blanket": 3731, " idiot": 3732, "rap": 3733, "yet": 3734, "ott": 3735, " deserve": 3736, "agger": 3737, " wrap": 3738, " fren": 3739, " sank": 3740, " liam": 3741, "hy": 3742, " frustration": 3743, "ica": 3744, " flying": 3745, " hugged": 3746, " enjoying": 3747, " carry": 3748, "iant": 3749, " opportunity": 3750, " bitter": 3751, " innocent": 3752, " size": 3753, " flipped": 3754, " answers": 3755, " brush": 3756, " throwing": 3757, "bert": 3758, "char": 3759, " dying": 3760, " silently": 3761, " plane": 3762, " delight": 3763, " sir": 3764, " closing": 3765, " knowledge": 3766, " carrying": 3767, "sal": 3768, " ere": 3769, " dancing": 3770, " fury": 3771, "bby": 3772, " poured": 3773, " damned": 3774, "ider": 3775, " lust": 3776, " julian": 3777, " stream": 3778, " clit": 3779, " problems": 3780, "whel": 3781, "ounce": 3782, " meaning": 3783, " rubbing": 3784, " lied": 3785, " elect": 3786, " uncomfortable": 3787, "anned": 3788, "uries": 3789, "eless": 3790, " wiped": 3791, "too": 3792, " underneath": 3793, " tattoo": 3794, " movement": 3795, " built": 3796, " gods": 3797, "ille": 3798, " sean": 3799, "ira": 3800, "perhaps": 3801, " nights": 3802, "esus": 3803, " shiver": 3804, "'s": 3805, " screaming": 3806, "oned": 3807, "ese": 3808, "ique": 3809, "formed": 3810, " faded": 3811, " libr": 3812, " belt": 3813, " rolling": 3814, " inh": 3815, " miles": 3816, " lack": 3817, " joy": 3818, "acher": 3819, " scrat": 3820, " tea": 3821, " daemon": 3822, " grandmother": 3823, " whenever": 3824, " collar": 3825, " exch": 3826, " york": 3827, " atte": 3828, " convince": 3829, " shift": 3830, " muscle": 3831, "especially": 3832, " disappear": 3833, " balls": 3834, " x": 3835, " stroked": 3836, " setting": 3837, "ante": 3838, " claw": 3839, " pride": 3840, " fer": 3841, "ola": 3842, " struck": 3843, " grateful": 3844, " um": 3845, "arily": 3846, " commit": 3847, " suppose": 3848, " success": 3849, " record": 3850, "hand": 3851, " surface": 3852, "five": 3853, " suggested": 3854, " broad": 3855, " nine": 3856, " plenty": 3857, " curse": 3858, " harsh": 3859, " ripped": 3860, " flight": 3861, " san": 3862, " kee": 3863, " waves": 3864, "four": 3865, " honor": 3866, " slee": 3867, "ayne": 3868, " vill": 3869, "aen": 3870, " cute": 3871, " yanked": 3872, " heads": 3873, "yl": 3874, " orgasm": 3875, " nipple": 3876, " pace": 3877, "port": 3878, "aenelle": 3879, " utter": 3880, " curious": 3881, "ats": 3882, " tar": 3883, " silk": 3884, " overwhel": 3885, " introd": 3886, " tie": 3887, " squeeze": 3888, " nate": 3889, "bit": 3890, " embarrass": 3891, " flowers": 3892, " nic": 3893, " drinking": 3894, " tristan": 3895, " relieved": 3896, " psych": 3897, " twist": 3898, "aping": 3899, " amount": 3900, " saved": 3901, " teased": 3902, " ease": 3903, "azed": 3904, " cause": 3905, " assumed": 3906, " palms": 3907, " lee": 3908, " pit": 3909, "umbling": 3910, "igned": 3911, " porch": 3912, "eled": 3913, " fists": 3914, "ution": 3915, "eline": 3916, "rog": 3917, "ivar": 3918, "mr": 3919, " acting": 3920, " spin": 3921, " prod": 3922, "mom": 3923, " stage": 3924, " tv": 3925, " tense": 3926, " snar": 3927, " warrior": 3928, " affect": 3929, " gathered": 3930, " ya": 3931, " abrupt": 3932, " rooms": 3933, " extreme": 3934, "isy": 3935, " downstairs": 3936, "sudden": 3937, " elbow": 3938, " pounding": 3939, "issa": 3940, " becoming": 3941, " joe": 3942, " fal": 3943, " ability": 3944, " action": 3945, " beast": 3946, " struggled": 3947, "ios": 3948, " emer": 3949, "vering": 3950, " lace": 3951, " obl": 3952, " straightened": 3953, " deli": 3954, " groan": 3955, " beth": 3956, " besides": 3957, " faces": 3958, " smelled": 3959, " insisted": 3960, " john": 3961, " birthday": 3962, "suddenly": 3963, " dating": 3964, " choose": 3965, " descri": 3966, " everywhere": 3967, " bloody": 3968, " remain": 3969, " loss": 3970, "ilar": 3971, " vic": 3972, " sque": 3973, " powers": 3974, " interrupted": 3975, " rules": 3976, "irled": 3977, "mp": 3978, " ank": 3979, " younger": 3980, "agg": 3981, " hurried": 3982, " removed": 3983, " faced": 3984, " backed": 3985, "ument": 3986, " search": 3987, " higher": 3988, " cole": 3989, "have": 3990, " connection": 3991, " lifting": 3992, " hole": 3993, " starts": 3994, " flut": 3995, "ki": 3996, "anna": 3997, "taking": 3998, " empl": 3999, " chocol": 4000, " stronger": 4001, " glow": 4002, " reass": 4003, "shall": 4004, " rese": 4005, " fingertips": 4006, " lake": 4007, " saf": 4008, " history": 4009, "nds": 4010, " refle": 4011, " surrounded": 4012, "sue": 4013, " popped": 4014, " assist": 4015, "until": 4016, " blade": 4017, "emma": 4018, " furn": 4019, " fabric": 4020, "turn": 4021, " confusion": 4022, " forgive": 4023, " challenge": 4024, " horrible": 4025, " lucien": 4026, " suspected": 4027, " protest": 4028, "cus": 4029, " necessary": 4030, " princess": 4031, "aden": 4032, " beating": 4033, " intended": 4034, " bigger": 4035, "rey": 4036, " swift": 4037, " damp": 4038, " cupped": 4039, " pred": 4040, "len": 4041, " covers": 4042, " garden": 4043, "both": 4044, " difference": 4045, "exp": 4046, " mach": 4047, " intens": 4048, "idy": 4049, " honestly": 4050, " deserved": 4051, " snorted": 4052, " stopping": 4053, "wood": 4054, " desperately": 4055, "ppy": 4056, "mare": 4057, " jess": 4058, " sell": 4059, " embr": 4060, "hu": 4061, "***": 4062, " resting": 4063, " sac": 4064, " incre": 4065, " frank": 4066, "del": 4067, " sebastian": 4068, " abandon": 4069, "lebr": 4070, " dut": 4071, " mart": 4072, "pless": 4073, " animal": 4074, " ivy": 4075, "uced": 4076, " delicious": 4077, " painful": 4078, "dr": 4079, " roof": 4080, "ask": 4081, " charge": 4082, "ilities": 4083, "ivers": 4084, "icing": 4085, " loves": 4086, " whose": 4087, " split": 4088, "velop": 4089, " shape": 4090, " sofa": 4091, " parked": 4092, "ilty": 4093, " leaves": 4094, " dirt": 4095, " intent": 4096, " sniff": 4097, " million": 4098, " host": 4099, "bbed": 4100, "raction": 4101, " stunned": 4102, " trembling": 4103, " tour": 4104, "erial": 4105, "ously": 4106, " vul": 4107, " bones": 4108, " whit": 4109, " josh": 4110, " cust": 4111, " spoken": 4112, " dug": 4113, " nowhere": 4114, "ias": 4115, " station": 4116, " insane": 4117, " celebr": 4118, " convinced": 4119, " accepted": 4120, " rise": 4121, "iest": 4122, "eeling": 4123, " horror": 4124, " argue": 4125, "mission": 4126, " glo": 4127, " match": 4128, " decl": 4129, "asha": 4130, " natural": 4131, " nightmare": 4132, "hol": 4133, "iment": 4134, " failed": 4135, "sometimes": 4136, "boy": 4137, "itation": 4138, " stal": 4139, " stat": 4140, " ident": 4141, " teen": 4142, " hissed": 4143, " guards": 4144, " dy": 4145, "udson": 4146, " wicked": 4147, " derek": 4148, " discovered": 4149, " jordan": 4150, " domin": 4151, " eve": 4152, " guilty": 4153, " weapon": 4154, " cousin": 4155, " occur": 4156, " pulse": 4157, " wes": 4158, " ryan": 4159, "ailing": 4160, " material": 4161, " settle": 4162, "alton": 4163, " confir": 4164, " kidding": 4165, "ethan": 4166, "asty": 4167, " works": 4168, "antage": 4169, " lungs": 4170, " mary": 4171, " swim": 4172, " bru": 4173, " grave": 4174, " drawn": 4175, "essa": 4176, " punish": 4177, " tied": 4178, " liqu": 4179, "sa": 4180, " ack": 4181, " clock": 4182, " murder": 4183, "yx": 4184, "otic": 4185, " tore": 4186, "ples": 4187, "itted": 4188, " lover": 4189, " investig": 4190, " sensed": 4191, " instru": 4192, " amuse": 4193, "bling": 4194, " grass": 4195, "iven": 4196, "logan": 4197, " tent": 4198, " pers": 4199, " holl": 4200, " inches": 4201, " parted": 4202, "sion": 4203, "except": 4204, " nik": 4205, " snat": 4206, " experienced": 4207, " dan": 4208, " chocolate": 4209, " papers": 4210, "bie": 4211, " joke": 4212, " thrown": 4213, "three": 4214, " upper": 4215, " occasion": 4216, " secrets": 4217, " flood": 4218, " adjust": 4219, " gown": 4220, " display": 4221, "eron": 4222, " rafe": 4223, " ai": 4224, " embarrassed": 4225, " daddy": 4226, "illing": 4227, "blood": 4228, " cheer": 4229, "umps": 4230, "urch": 4231, " facing": 4232, "hold": 4233, "ational": 4234, "wen": 4235, " capable": 4236, " library": 4237, " ate": 4238, " boat": 4239, " moan": 4240, " conc": 4241, " spending": 4242, " lang": 4243, "ushes": 4244, " henry": 4245, "got": 4246, " jet": 4247, " freaking": 4248, "wear": 4249, "cul": 4250, " clary": 4251, " sweetheart": 4252, " meal": 4253, " nods": 4254, " amused": 4255, " blew": 4256, " acknow": 4257, " sake": 4258, " tells": 4259, " square": 4260, "mon": 4261, " responded": 4262, " manage": 4263, "lish": 4264, "osing": 4265, " recognize": 4266, " feed": 4267, " toes": 4268, " shakes": 4269, " ori": 4270, " heavily": 4271, " smoke": 4272, "shed": 4273, " vulner": 4274, " ache": 4275, " assured": 4276, " shifter": 4277, " service": 4278, " shorts": 4279, " gy": 4280, " survive": 4281, " bride": 4282, "aky": 4283, "ette": 4284, " partner": 4285, "sec": 4286, " offering": 4287, " sour": 4288, "ective": 4289, "etan": 4290, "rick": 4291, " wash": 4292, " oce": 4293, "ubborn": 4294, "elve": 4295, " employ": 4296, " tech": 4297, "ndon": 4298, "por": 4299, "lled": 4300, " forcing": 4301, " vac": 4302, " deny": 4303, " nails": 4304, " whispers": 4305, " hurry": 4306, " created": 4307, " chic": 4308, " shivered": 4309, " alec": 4310, " engine": 4311, "cam": 4312, "min": 4313, "ium": 4314, "asure": 4315, "ference": 4316, " causing": 4317, " understanding": 4318, " filling": 4319, " picking": 4320, " champ": 4321, " trailed": 4322, " wooden": 4323, " shrug": 4324, " recall": 4325, " row": 4326, " dining": 4327, " surprising": 4328, " inner": 4329, "umping": 4330, " woods": 4331, " yellow": 4332, "icle": 4333, "essed": 4334, "asc": 4335, "amped": 4336, " gas": 4337, " enter": 4338, "ication": 4339, "nick": 4340, " wow": 4341, " shade": 4342, " river": 4343, " senses": 4344, "daniel": 4345, " contract": 4346, " impat": 4347, " strang": 4348, " gho": 4349, " won": 4350, " sheets": 4351, " budd": 4352, "beat": 4353, " humor": 4354, " west": 4355, " cursed": 4356, " tit": 4357, " pier": 4358, " react": 4359, " account": 4360, "ointed": 4361, " robe": 4362, " wrists": 4363, " common": 4364, " train": 4365, "year": 4366, "down": 4367, " 2": 4368, " happiness": 4369, " cred": 4370, " race": 4371, " bree": 4372, " chose": 4373, "ora": 4374, "vor": 4375, " awful": 4376, " bothered": 4377, " nature": 4378, " gesture": 4379, " exhausted": 4380, " intern": 4381, " disgust": 4382, " amusement": 4383, " casual": 4384, " safety": 4385, "enz": 4386, " london": 4387, " height": 4388, " butter": 4389, " breasts": 4390, " merely": 4391, "dad": 4392, " lone": 4393, " hurting": 4394, " likes": 4395, " raw": 4396, " worn": 4397, " mck": 4398, " dropping": 4399, "iper": 4400, " prec": 4401, " otherwise": 4402, " iron": 4403, " ocean": 4404, " witness": 4405, " erection": 4406, "expected": 4407, " ban": 4408, " bags": 4409, " report": 4410, " blink": 4411, " sched": 4412, " terrified": 4413, " ladies": 4414, " callum": 4415, " stubborn": 4416, "mist": 4417, " fixed": 4418, "becca": 4419, " letter": 4420, " leading": 4421, " mumbled": 4422, "ires": 4423, "cons": 4424, " paris": 4425, " including": 4426, "ashion": 4427, " paying": 4428, " nearby": 4429, "une": 4430, " covering": 4431, " giant": 4432, "iction": 4433, " steel": 4434, " exte": 4435, "uine": 4436, " makeup": 4437, " slapped": 4438, "iger": 4439, " nap": 4440, " frame": 4441, " announced": 4442, " babe": 4443, " ms": 4444, " nerves": 4445, " decor": 4446, "rop": 4447, " correct": 4448, " goddam": 4449, " evidence": 4450, " blonde": 4451, " total": 4452, " fat": 4453, " grandfather": 4454, " cars": 4455, " ignoring": 4456, " satisfaction": 4457, "apping": 4458, "aud": 4459, "ivia": 4460, " ship": 4461, "coming": 4462, " holds": 4463, " advantage": 4464, " gate": 4465, " startled": 4466, "eredith": 4467, " garage": 4468, " holly": 4469, "ception": 4470, " rule": 4471, " stranger": 4472, " explan": 4473, "acks": 4474, "gage": 4475, " goddess": 4476, " parts": 4477, " chain": 4478, " lucy": 4479, "ism": 4480, " tur": 4481, " taught": 4482, " sea": 4483, "vision": 4484, " charlotte": 4485, " violet": 4486, " swallow": 4487, " briefly": 4488, " une": 4489, "despite": 4490, "cks": 4491, " distracted": 4492, " bone": 4493, " lily": 4494, " passing": 4495, "osen": 4496, "gress": 4497, " shel": 4498, "po": 4499, " rhy": 4500, " opin": 4501, " eased": 4502, " chairs": 4503, " shame": 4504, " stands": 4505, " michael": 4506, " helpless": 4507, " grinning": 4508, " jackson": 4509, " freed": 4510, "asped": 4511, "sim": 4512, " church": 4513, " oper": 4514, " sisters": 4515, " bank": 4516, " dylan": 4517, " cord": 4518, "ura": 4519, " di": 4520, " gabe": 4521, " skyla": 4522, "ization": 4523, "lder": 4524, " twelve": 4525, " jerk": 4526, " statement": 4527, "elled": 4528, " clue": 4529, "vern": 4530, " grabbing": 4531, " leans": 4532, " potent": 4533, " trusted": 4534, " genuine": 4535, " driveway": 4536, " tasted": 4537, "aze": 4538, " chosen": 4539, " sounding": 4540, "enger": 4541, " ant": 4542, " reluct": 4543, "gest": 4544, " damien": 4545, " games": 4546, " arrange": 4547, "place": 4548, " threatened": 4549, " anticipation": 4550, " object": 4551, " dozen": 4552, " dawn": 4553, " langu": 4554, " members": 4555, " zoe": 4556, "ify": 4557, " colin": 4558, " flushed": 4559, "being": 4560, " address": 4561, " searched": 4562, " bay": 4563, " chicago": 4564, " incredible": 4565, " escaped": 4566, "inger": 4567, "ben": 4568, " fac": 4569, "jen": 4570, " wis": 4571, " washed": 4572, " sway": 4573, "ule": 4574, " crew": 4575, " abby": 4576, " major": 4577, " unlo": 4578, "max": 4579, " sofia": 4580, " gazed": 4581, " bowl": 4582, " issue": 4583, " quit": 4584, " cutting": 4585, "lord": 4586, " profession": 4587, "esome": 4588, " stroke": 4589, " william": 4590, " moves": 4591, " tail": 4592, " mattress": 4593, "tt": 4594, "rose": 4595, " quar": 4596, " sooner": 4597, " possibility": 4598, " thread": 4599, "stal": 4600, " winked": 4601, " drifted": 4602, " damage": 4603, " stumbled": 4604, " vel": 4605, " bul": 4606, " creature": 4607, " satur": 4608, " lexi": 4609, " stories": 4610, " wrapping": 4611, " curve": 4612, " cooper": 4613, " clothing": 4614, " appe": 4615, " patted": 4616, " gall": 4617, " training": 4618, " charlie": 4619, " amy": 4620, "grace": 4621, "imm": 4622, " hart": 4623, " cher": 4624, "iently": 4625, "dding": 4626, " grad": 4627, " sensitive": 4628, " shy": 4629, "atically": 4630, "ceed": 4631, " jour": 4632, " origin": 4633, " abruptly": 4634, " behav": 4635, " answering": 4636, "anor": 4637, " depe": 4638, " access": 4639, "asper": 4640, " fangs": 4641, " tray": 4642, " guessed": 4643, " bunch": 4644, " hous": 4645, " fasc": 4646, " devil": 4647, "kn": 4648, "look": 4649, " stars": 4650, " vin": 4651, "avin": 4652, " mc": 4653, " flin": 4654, " unexpected": 4655, " tables": 4656, " spirit": 4657, " belonged": 4658, " prev": 4659, " camera": 4660, " dipped": 4661, " tipped": 4662, " photogr": 4663, " catching": 4664, " virgin": 4665, "add": 4666, " americ": 4667, "ral": 4668, " torn": 4669, " cracked": 4670, " suite": 4671, " log": 4672, " fake": 4673, "beth": 4674, " drinks": 4675, " trapped": 4676, "gly": 4677, " confident": 4678, " walks": 4679, " hitting": 4680, " spring": 4681, " growl": 4682, " sophia": 4683, " morgan": 4684, "ulf": 4685, "bet": 4686, " brill": 4687, "isab": 4688, " sarc": 4689, " strand": 4690, " aching": 4691, " plastic": 4692, " raise": 4693, " brushing": 4694, " halfway": 4695, " heated": 4696, "first": 4697, "ature": 4698, " cha": 4699, " rhyth": 4700, "about": 4701, " choked": 4702, "jake": 4703, " rip": 4704, " jaenelle": 4705, " lies": 4706, "umble": 4707, " echoed": 4708, " stroking": 4709, " destroy": 4710, " neighbor": 4711, " attract": 4712, "claimed": 4713, " connor": 4714, " waste": 4715, " alarm": 4716, " disbel": 4717, " wishing": 4718, "umn": 4719, " furious": 4720, " musc": 4721, "unfortunately": 4722, " riding": 4723, "slow": 4724, " painting": 4725, "mad": 4726, "ran": 4727, " practice": 4728, " vanished": 4729, " guests": 4730, " shopping": 4731, "oted": 4732, " glancing": 4733, " emotional": 4734, " scram": 4735, " written": 4736, "acle": 4737, " ugly": 4738, " bella": 4739, " strip": 4740, "bre": 4741, " target": 4742, " ward": 4743, "apparently": 4744, " checking": 4745, " vers": 4746, " regular": 4747, " resc": 4748, " enemy": 4749, " wan": 4750, " names": 4751, " forty": 4752, " tighter": 4753, "ieve": 4754, "ival": 4755, " stair": 4756, " page": 4757, " rhythm": 4758, " yard": 4759, " ing": 4760, " isabella": 4761, " mason": 4762, " eyel": 4763, "uit": 4764, " freak": 4765, " invited": 4766, " stated": 4767, " begging": 4768, "irl": 4769, " obs": 4770, " forest": 4771, " farm": 4772, " loudly": 4773, "ales": 4774, " dread": 4775, " bird": 4776, " symp": 4777, " responsible": 4778, "people": 4779, " hors": 4780, " balance": 4781, "ugg": 4782, " silly": 4783, " collap": 4784, " etern": 4785, " racing": 4786, " social": 4787, " sweep": 4788, " smoot": 4789, " underwear": 4790, " chew": 4791, " changing": 4792, " connected": 4793, " tensed": 4794, " amb": 4795, " fate": 4796, "ena": 4797, "iture": 4798, " issu": 4799, " pockets": 4800, " ram": 4801, " mental": 4802, " afford": 4803, " constant": 4804, "umed": 4805, " pa": 4806, " lick": 4807, " clar": 4808, "alle": 4809, " rev": 4810, "lor": 4811, " actions": 4812, " nurse": 4813, " french": 4814, " tub": 4815, " rout": 4816, "iosity": 4817, " steal": 4818, " encour": 4819, " contr": 4820, " veins": 4821, " unw": 4822, "aired": 4823, " myst": 4824, " snap": 4825, " farther": 4826, " hood": 4827, " project": 4828, " spar": 4829, " shuddered": 4830, "ado": 4831, " claimed": 4832, " raced": 4833, " circum": 4834, "uction": 4835, "adia": 4836, " cale": 4837, " mountain": 4838, " bored": 4839, " quinn": 4840, " depart": 4841, " tan": 4842, " orders": 4843, " nobody": 4844, " alco": 4845, "omas": 4846, " kim": 4847, " furniture": 4848, " aid": 4849, " satisfied": 4850, " nope": 4851, "ij": 4852, " jim": 4853, "gard": 4854, " pile": 4855, " punch": 4856, " fifty": 4857, " ari": 4858, " arch": 4859, " mattered": 4860, "clock": 4861, " explanation": 4862, " apologize": 4863, "lee": 4864, " embrace": 4865, " sheet": 4866, " intimate": 4867, "iance": 4868, " extremely": 4869, " travel": 4870, "imin": 4871, " bullshit": 4872, " result": 4873, " named": 4874, " gestured": 4875, " garrett": 4876, " buzz": 4877, " begged": 4878, " mall": 4879, "ences": 4880, " laughs": 4881, " strode": 4882, " techn": 4883, "hetic": 4884, " disappointed": 4885, " expensive": 4886, " flames": 4887, " sucking": 4888, "oph": 4889, "walk": 4890, " hal": 4891, "hal": 4892, " compan": 4893, "spect": 4894, " flicked": 4895, " glit": 4896, " indeed": 4897, "ases": 4898, " stepping": 4899, "pre": 4900, "know": 4901, " returning": 4902, " ken": 4903, " drug": 4904, " romantic": 4905, " advice": 4906, "urs": 4907, " winced": 4908, " career": 4909, " knuck": 4910, "mat": 4911, " attend": 4912, " broo": 4913, " rand": 4914, " voices": 4915, " heartbeat": 4916, "erie": 4917, " hannah": 4918, " dumb": 4919, "unched": 4920, " normally": 4921, " clo": 4922, "inding": 4923, "iring": 4924, " dun": 4925, " zach": 4926, " elbows": 4927, " tough": 4928, " delicate": 4929, " compet": 4930, " shooting": 4931, " rode": 4932, "however": 4933, " restr": 4934, " stall": 4935, " traced": 4936, " hunger": 4937, " lux": 4938, "cr": 4939, " behavior": 4940, "sil": 4941, " ven": 4942, " distur": 4943, " knot": 4944, " centuries": 4945, "rib": 4946, "agr": 4947, "je": 4948, "ients": 4949, " teach": 4950, "inkled": 4951, "quis": 4952, " saturday": 4953, " council": 4954, " pointing": 4955, " ranch": 4956, " cro": 4957, " whom": 4958, " plain": 4959, " layne": 4960, " custom": 4961, " weapons": 4962, "book": 4963, " chill": 4964, " local": 4965, " deliber": 4966, " friday": 4967, "enzie": 4968, " lin": 4969, " organ": 4970, " impress": 4971, "uts": 4972, "agement": 4973, " hook": 4974, " property": 4975, " comfor": 4976, "tail": 4977, "ele": 4978, " pizz": 4979, "ila": 4980, " opinion": 4981, " needing": 4982, " intention": 4983, " ruin": 4984, " bud": 4985, " terms": 4986, " ron": 4987, " nu": 4988, " core": 4989, " chuckle": 4990, " request": 4991, " trace": 4992, "steps": 4993, " fed": 4994, "ancesca": 4995, " happily": 4996, " attacked": 4997, " matters": 4998, " issues": 4999, " infl": 5000, " withd": 5001, " stiffened": 5002, " jesus": 5003, " assume": 5004, " grief": 5005, "shine": 5006, " allowing": 5007, " contem": 5008, " background": 5009, " intensity": 5010, "oop": 5011, "ayed": 5012, "trent": 5013, " protection": 5014, " sugar": 5015, " jared": 5016, " breaths": 5017, " tapped": 5018, " slipping": 5019, " shifters": 5020, " cocked": 5021, " awesome": 5022, " remembering": 5023, " digging": 5024, " sharply": 5025, " insist": 5026, " keeps": 5027, " darling": 5028, " curiosity": 5029, "slowly": 5030, " disappointment": 5031, " lately": 5032, " vulnerable": 5033, "lace": 5034, " drown": 5035, " torture": 5036, " squir": 5037, " lots": 5038, "ality": 5039, " feared": 5040, " victim": 5041, " runs": 5042, " approach": 5043, " precious": 5044, " bridge": 5045, "athy": 5046, "dar": 5047, " init": 5048, " climb": 5049, "take": 5050, " whoever": 5051, " condom": 5052, " rig": 5053, "orrow": 5054, " haul": 5055, " owe": 5056, " jane": 5057, " incredibly": 5058, " confidence": 5059, " peered": 5060, "idly": 5061, " grimaced": 5062, " horses": 5063, " struggling": 5064, " hudson": 5065, "lynn": 5066, " crad": 5067, " deck": 5068, " unlike": 5069, " sharing": 5070, " eleg": 5071, "somehow": 5072, " served": 5073, " price": 5074, " faith": 5075, " temple": 5076, " impl": 5077, "aire": 5078, " massive": 5079, "cell": 5080, " annoyed": 5081, " loyal": 5082, " formed": 5083, " mack": 5084, "arch": 5085, " valent": 5086, " agreement": 5087, " goodbye": 5088, "probably": 5089, "ended": 5090, " liter": 5091, " marcus": 5092, " lucivar": 5093, "tears": 5094, "really": 5095, " treated": 5096, " monster": 5097, "ham": 5098, " divor": 5099, " whipped": 5100, " prim": 5101, " exposed": 5102, " surely": 5103, " credit": 5104, "wo": 5105, "anced": 5106, " sophie": 5107, " giggled": 5108, " liquid": 5109, " fail": 5110, "iamond": 5111, " purple": 5112, " ribs": 5113, " unh": 5114, " belle": 5115, "ienna": 5116, " jenks": 5117, " rocked": 5118, " north": 5119, "istic": 5120, "end": 5121, " drank": 5122, " shown": 5123, " due": 5124, "chase": 5125, " riley": 5126, "hus": 5127, "aron": 5128, " packed": 5129, " glimp": 5130, "kee": 5131, " declan": 5132, " curved": 5133, " daisy": 5134, " ghost": 5135, " desp": 5136, " retreat": 5137, " scru": 5138, " landing": 5139, " cig": 5140, " studying": 5141, "ander": 5142, " dealing": 5143, " carpet": 5144, " egg": 5145, " cameron": 5146, " streets": 5147, "anning": 5148, " piss": 5149, " circumst": 5150, " scare": 5151, " depth": 5152, "gram": 5153, " sib": 5154, "colt": 5155, "standing": 5156, " emily": 5157, " spotted": 5158, " breeze": 5159, "kat": 5160, " shove": 5161, " midnight": 5162, " eyed": 5163, " holy": 5164, " frozen": 5165, " nud": 5166, " fired": 5167, " jol": 5168, " hector": 5169, " yep": 5170, "pan": 5171, " cave": 5172, "ollen": 5173, " wren": 5174, " rome": 5175, " dagger": 5176, "does": 5177, "cient": 5178, " sweater": 5179, "nel": 5180, " pretending": 5181, " vincent": 5182, " tam": 5183, " circles": 5184, " curls": 5185, " occurred": 5186, " swore": 5187, " arrog": 5188, " scowled": 5189, " veh": 5190, " disp": 5191, " julie": 5192, " hill": 5193, " gwen": 5194, " cart": 5195, " english": 5196, " obser": 5197, " glowing": 5198, " urg": 5199, "ores": 5200, " shining": 5201, " member": 5202, " begun": 5203, " content": 5204, " trained": 5205, " disbelief": 5206, " realizing": 5207, "ording": 5208, " sacrif": 5209, " encoun": 5210, " diamond": 5211, "olves": 5212, "inary": 5213, " brilliant": 5214, "ona": 5215, "haired": 5216, "ole": 5217, " winter": 5218, "bell": 5219, " fish": 5220, "agne": 5221, " dollars": 5222, " nathan": 5223, " biggest": 5224, "met": 5225, "irling": 5226, " drawer": 5227, "jam": 5228, " ruined": 5229, " thunder": 5230, " dragging": 5231, " write": 5232, "inc": 5233, " ky": 5234, " laz": 5235, " affection": 5236, " falls": 5237, " barn": 5238, " points": 5239, "luck": 5240, "phone": 5241, "ooped": 5242, " unt": 5243, " acted": 5244, "these": 5245, " swollen": 5246, " cake": 5247, " leap": 5248, " doubted": 5249, " slo": 5250, "mag": 5251, "gre": 5252, " concl": 5253, " bart": 5254, " similar": 5255, " dism": 5256, " jewel": 5257, "iod": 5258, " territ": 5259, " ult": 5260, " prick": 5261, " replaced": 5262, "town": 5263, " seeming": 5264, " develop": 5265, " jamie": 5266, " plat": 5267, " informed": 5268, " misty": 5269, " received": 5270, "apes": 5271, " ends": 5272, " killer": 5273, " victoria": 5274, "alex": 5275, " slowed": 5276, " sunday": 5277, " spee": 5278, " events": 5279, "fall": 5280, " mask": 5281, " dude": 5282, " adult": 5283, " desce": 5284, "itor": 5285, " file": 5286, " magaz": 5287, " miser": 5288, " immort": 5289, "apers": 5290, " olivia": 5291, "ulation": 5292, "cass": 5293, " attached": 5294, "luke": 5295, "va": 5296, "py": 5297, " notes": 5298, " revealing": 5299, " meredith": 5300, " goin": 5301, " pizza": 5302, " courage": 5303, " demanding": 5304, "inged": 5305, " rick": 5306, "none": 5307, " pinned": 5308, " recently": 5309, " shr": 5310, "sur": 5311, " smirk": 5312, " friendly": 5313, " owned": 5314, " crou": 5315, "rier": 5316, " melted": 5317, " ancient": 5318, " professional": 5319, " reaches": 5320, " fol": 5321, " acqu": 5322, "lit": 5323, "inated": 5324, " suspect": 5325, " corrid": 5326, "ika": 5327, " condition": 5328, "atively": 5329, "arse": 5330, " maggie": 5331, " impression": 5332, " champagne": 5333, " rever": 5334, " charming": 5335, "ideon": 5336, " electric": 5337, "each": 5338, " argument": 5339, " bike": 5340, " tend": 5341, " village": 5342, "anne": 5343, " anna": 5344, " scary": 5345, "keep": 5346, " exploded": 5347, " unb": 5348, " reser": 5349, " alcohol": 5350, " charm": 5351, "tles": 5352, "omb": 5353, "liam": 5354, " andre": 5355, " typ": 5356, " buddy": 5357, "noah": 5358, " knuckles": 5359, " kane": 5360, "part": 5361, " appearance": 5362, " enorm": 5363, "gy": 5364, " nerve": 5365, " cards": 5366, " biting": 5367, " rot": 5368, "hard": 5369, " muff": 5370, " huff": 5371, " shrie": 5372, " rust": 5373, " paint": 5374, " possessed": 5375, " destroyed": 5376, "ett": 5377, " accent": 5378, " hesitation": 5379, " orange": 5380, " evan": 5381, "sky": 5382, " snarled": 5383, " halt": 5384, " marshall": 5385, " closely": 5386, " trembled": 5387, " clutched": 5388, "aker": 5389, "nate": 5390, "ket": 5391, " punched": 5392, " danced": 5393, " aim": 5394, " finn": 5395, " flex": 5396, " lined": 5397, " weather": 5398, " bench": 5399, " julia": 5400, " warriors": 5401, " scen": 5402, "zzled": 5403, " bond": 5404, " sid": 5405, " wink": 5406, " option": 5407, " footsteps": 5408, " tiger": 5409, " saving": 5410, " vague": 5411, " conner": 5412, " nin": 5413, "seeing": 5414, "'m": 5415, " rushing": 5416, "aret": 5417, " houses": 5418, " south": 5419, " tran": 5420, " pounded": 5421, "should": 5422, "uous": 5423, " sensual": 5424, "sie": 5425, "hin": 5426, "anny": 5427, " cage": 5428, "mate": 5429, "anting": 5430, "azing": 5431, " football": 5432, " gritted": 5433, " wil": 5434, " duty": 5435, " remote": 5436, " glances": 5437, " exit": 5438, "unged": 5439, " poison": 5440, "ubble": 5441, " mission": 5442, " existence": 5443, " noted": 5444, "charl": 5445, " loos": 5446, " gym": 5447, "mel": 5448, "cur": 5449, " frustrated": 5450, " images": 5451, " airport": 5452, " eddie": 5453, " invitation": 5454, " traff": 5455, " agent": 5456, " callie": 5457, " eighteen": 5458, " surre": 5459, " reception": 5460, " dang": 5461, " crystal": 5462, " attractive": 5463, " hooked": 5464, " diss": 5465, "ems": 5466, " caut": 5467, " bleeding": 5468, "riate": 5469, "anges": 5470, " sandw": 5471, " tips": 5472, "gas": 5473, "thanks": 5474, "od": 5475, " velvet": 5476, "eyed": 5477, " shaft": 5478, " ached": 5479, " commun": 5480, " kinds": 5481, " shifting": 5482, "omes": 5483, " particularly": 5484, " television": 5485, " sits": 5486, " mckay": 5487, " lashes": 5488, " exclaimed": 5489, " dial": 5490, " design": 5491, " stole": 5492, " stress": 5493, " lobby": 5494, " tank": 5495, "orts": 5496, " terror": 5497, " speech": 5498, " style": 5499, " movements": 5500, "renna": 5501, " whitney": 5502, "izzy": 5503, " occup": 5504, " machine": 5505, " ok": 5506, "law": 5507, " circumstances": 5508, " anton": 5509, " impressed": 5510, " humili": 5511, " pity": 5512, " swing": 5513, " buttons": 5514, "ability": 5515, "aham": 5516, " babies": 5517, " activ": 5518, "urance": 5519, "ption": 5520, " stretch": 5521, "long": 5522, " nav": 5523, " screwed": 5524, "ader": 5525, " ador": 5526, " spect": 5527, " writing": 5528, " fashion": 5529, "christ": 5530, " weal": 5531, "xy": 5532, "lad": 5533, " dalton": 5534, "neither": 5535, " tug": 5536, " cris": 5537, " assistant": 5538, " maid": 5539, " sab": 5540, " oliver": 5541, " neat": 5542, "asmine": 5543, " skills": 5544, "oria": 5545, " judge": 5546, " dogs": 5547, " interview": 5548, " conscious": 5549, " stack": 5550, "fan": 5551, " thrilled": 5552, " seth": 5553, "sey": 5554, " passenger": 5555, "acter": 5556, " reveal": 5557, " lur": 5558, " stern": 5559, "ierney": 5560, " various": 5561, " vide": 5562, "jon": 5563, "elly": 5564, " tangled": 5565, " rarely": 5566, " auth": 5567, " sidewalk": 5568, "vat": 5569, " detail": 5570, " handful": 5571, " corners": 5572, "pack": 5573, "gab": 5574, " period": 5575, " painted": 5576, " cel": 5577, " begins": 5578, " murd": 5579, " former": 5580, " ideas": 5581, " rude": 5582, " manner": 5583, " ripp": 5584, " drugs": 5585, "nor": 5586, " nina": 5587, " chris": 5588, " sevent": 5589, " language": 5590, " bon": 5591, " goss": 5592, " whist": 5593, " amelia": 5594, " opens": 5595, " stops": 5596, " outfit": 5597, " eleven": 5598, "amber": 5599, "jected": 5600, " nasty": 5601, " drops": 5602, " selfish": 5603, " utterly": 5604, " darted": 5605, " unus": 5606, " express": 5607, " doc": 5608, " carol": 5609, " frightened": 5610, " zack": 5611, "imate": 5612, " shay": 5613, " role": 5614, " curl": 5615, "lau": 5616, " sarah": 5617, " gear": 5618, " version": 5619, " army": 5620, " twin": 5621, "isions": 5622, "ember": 5623, " throughout": 5624, " uncertain": 5625, " graham": 5626, " sunshine": 5627, " entertain": 5628, " traffic": 5629, " duke": 5630, " spinning": 5631, " threatening": 5632, " famil": 5633, " cot": 5634, " paul": 5635, " meat": 5636, " task": 5637, " hid": 5638, "li": 5639, " friendship": 5640, " louder": 5641, " signs": 5642, " hired": 5643, " pleasant": 5644, " ess": 5645, " gripping": 5646, "ators": 5647, " knocking": 5648, " cruel": 5649, "etr": 5650, " rory": 5651, "mi": 5652, " author": 5653, " attitude": 5654, "foot": 5655, " preferred": 5656, "dev": 5657, " katie": 5658, " waitress": 5659, "cal": 5660, " hank": 5661, "ilet": 5662, " proof": 5663, " sadness": 5664, " drum": 5665, " upward": 5666, " castle": 5667, " seated": 5668, " extended": 5669, "making": 5670, " ep": 5671, " hmm": 5672, " darkened": 5673, " marble": 5674, " distant": 5675, "riel": 5676, " previous": 5677, " booth": 5678, "vert": 5679, " client": 5680, " explos": 5681, " mortal": 5682, "hope": 5683, " serve": 5684, " sneak": 5685, " strike": 5686, "daemon": 5687, "ctions": 5688, " freedom": 5689, " pony": 5690, "chell": 5691, " gul": 5692, "urally": 5693, " stark": 5694, " pierce": 5695, " flared": 5696, "bon": 5697, " abandoned": 5698, " thorough": 5699, " obe": 5700, "heron": 5701, " hunt": 5702, "venge": 5703, " slick": 5704, " fairy": 5705, " privacy": 5706, " swiftly": 5707, " schedule": 5708, "claire": 5709, "soon": 5710, " coach": 5711, "itting": 5712, " placing": 5713, "vict": 5714, "mike": 5715, " scanned": 5716, " mixed": 5717, " kyle": 5718, " acheron": 5719, " glimpse": 5720, " rent": 5721, " exchange": 5722, " hunters": 5723, " blast": 5724, " bread": 5725, "gen": 5726, " refer": 5727, "lying": 5728, " nib": 5729, " uncons": 5730, " anxious": 5731, " loun": 5732, " fan": 5733, " polite": 5734, " hamm": 5735, "bone": 5736, " spare": 5737, "give": 5738, " perman": 5739, "bur": 5740, " boun": 5741, "kyrian": 5742, "gal": 5743, "turning": 5744, " intell": 5745, " spilled": 5746, "ita": 5747, " complicated": 5748, " smaller": 5749, " chicken": 5750, " trash": 5751, " ly": 5752, " clung": 5753, "chloe": 5754, " dreamed": 5755, " bullet": 5756, "cellent": 5757, " ec": 5758, " arousal": 5759, " boring": 5760, " shaky": 5761, " rear": 5762, " dull": 5763, "luis": 5764, " enormous": 5765, " perform": 5766, " soothing": 5767, "mac": 5768, "lar": 5769, "esday": 5770, " heather": 5771, " swell": 5772, "giving": 5773, " rat": 5774, " tease": 5775, " alley": 5776, " caleb": 5777, " exhaled": 5778, " sore": 5779, "guing": 5780, "allas": 5781, " trevor": 5782, " sheer": 5783, " physically": 5784, " leo": 5785, "jace": 5786, " brut": 5787, " eternity": 5788, "iated": 5789, "bi": 5790, " necklace": 5791, " fantasy": 5792, " blush": 5793, " casually": 5794, " jeff": 5795, " accompl": 5796, " kicking": 5797, " torment": 5798, " hero": 5799, " fork": 5800, "knowing": 5801, " smirked": 5802, " wry": 5803, " collapsed": 5804, " contain": 5805, " avail": 5806, " patience": 5807, " softened": 5808, " emerg": 5809, " lingering": 5810, " sunlight": 5811, " maint": 5812, " flu": 5813, " mit": 5814, " punishment": 5815, " geor": 5816, " program": 5817, "fire": 5818, "thew": 5819, " existed": 5820, "appy": 5821, "six": 5822, " hurts": 5823, " dish": 5824, " protective": 5825, " isabelle": 5826, " precise": 5827, " gran": 5828, " warn": 5829, " arrest": 5830, " crawled": 5831, " raising": 5832, " leader": 5833, " alice": 5834, "nic": 5835, "icole": 5836, " monday": 5837, "unting": 5838, " edges": 5839, " photos": 5840, " families": 5841, " foolish": 5842, " cleaned": 5843, " hoarse": 5844, " squeezing": 5845, " movies": 5846, "husi": 5847, " throbbing": 5848, " magnus": 5849, "ollo": 5850, " literally": 5851, " captain": 5852, " revealed": 5853, "cel": 5854, "stop": 5855, "ava": 5856, " prevent": 5857, " styx": 5858, " snatched": 5859, "gra": 5860, " jonas": 5861, "nal": 5862, "arest": 5863, " autom": 5864, " laptop": 5865, "surely": 5866, " closest": 5867, " planted": 5868, "things": 5869, " snugg": 5870, " heel": 5871, " wigg": 5872, " cheese": 5873, " somet": 5874, " braced": 5875, " lifet": 5876, " code": 5877, " sees": 5878, " brit": 5879, "ridan": 5880, " bik": 5881, " remove": 5882, "iers": 5883, " ankles": 5884, " gradu": 5885, "orting": 5886, " flip": 5887, " struggle": 5888, "immed": 5889, "swe": 5890, " letters": 5891, " learning": 5892, " corridor": 5893, " slap": 5894, " sixteen": 5895, " goddamn": 5896, " lets": 5897, " christian": 5898, " upright": 5899, " surrounding": 5900, " clearing": 5901, "ruction": 5902, " panting": 5903, " brandon": 5904, " gain": 5905, " habit": 5906, " tugging": 5907, " invis": 5908, "world": 5909, " vegas": 5910, "jax": 5911, "ament": 5912, " surve": 5913, "plus": 5914, " unif": 5915, " propped": 5916, " pillows": 5917, " ratt": 5918, " surrender": 5919, " pretended": 5920, " slave": 5921, " stool": 5922, " grumbled": 5923, " fancy": 5924, "icate": 5925, " sentence": 5926, " pattern": 5927, " crush": 5928, "soph": 5929, "rachel": 5930, " overwhelming": 5931, " mug": 5932, " bolt": 5933, " stuffed": 5934, "cat": 5935, " bust": 5936, " colors": 5937, " tossing": 5938, " claws": 5939, " cerem": 5940, " peter": 5941, "viously": 5942, " conce": 5943, "gment": 5944, "vation": 5945, " carson": 5946, "ancing": 5947, " ragged": 5948, "amps": 5949, " healthy": 5950, " teacher": 5951, " general": 5952, "erc": 5953, " talent": 5954, " dart": 5955, " nervously": 5956, " gentleman": 5957, "00": 5958, " polit": 5959, " location": 5960, " cassidy": 5961, " melt": 5962, " caring": 5963, " refuse": 5964, " tony": 5965, " ourselves": 5966, "wal": 5967, "lights": 5968, " animals": 5969, "mark": 5970, " fiona": 5971, " afterward": 5972, " saetan": 5973, " lonely": 5974, "aline": 5975, "eness": 5976, "julian": 5977, " trem": 5978, " excellent": 5979, " ny": 5980, "ano": 5981, " ryder": 5982, " wre": 5983, " determination": 5984, " enthusi": 5985, "either": 5986, " fog": 5987, "last": 5988, "love": 5989, " market": 5990, " avoiding": 5991, " gossip": 5992, " smug": 5993, " driven": 5994, "iveness": 5995, "sor": 5996, " discover": 5997, " bothering": 5998, " feather": 5999, " resol": 6000, " basket": 6001, " tempor": 6002, " changes": 6003, "tal": 6004, " insp": 6005, "obviously": 6006, " preston": 6007, "nda": 6008, "icating": 6009, " drained": 6010, " mult": 6011, " stilled": 6012, " sole": 6013, " boxes": 6014, "iev": 6015, " ske": 6016, " territory": 6017, " eaten": 6018, " cleaning": 6019, "anything": 6020, " rebecca": 6021, " delivered": 6022, " create": 6023, " longing": 6024, " ringing": 6025, " cops": 6026, " clan": 6027, "ixt": 6028, " rings": 6029, " exec": 6030, " draped": 6031, "asses": 6032, " stunning": 6033, " crime": 6034, " meg": 6035, " whim": 6036, "ipe": 6037, " brace": 6038, " pec": 6039, "dec": 6040, " spray": 6041, " mail": 6042, "remy": 6043, "rage": 6044, " straw": 6045, " elegant": 6046, " tom": 6047, "illa": 6048, " absor": 6049, " agony": 6050, "ino": 6051, " officer": 6052, " rope": 6053, " dressing": 6054, " smoothed": 6055, " trigg": 6056, " violent": 6057, " nodding": 6058, "eral": 6059, " flower": 6060, " flashing": 6061, "azz": 6062, " required": 6063, " innoc": 6064, " scoot": 6065, " arranged": 6066, " ais": 6067, "together": 6068, " society": 6069, " clicked": 6070, " bars": 6071, " toast": 6072, "david": 6073, "say": 6074, "made": 6075, " span": 6076, " commanded": 6077, "olen": 6078, " jenny": 6079, " brave": 6080, " jumping": 6081, " owed": 6082, " weakness": 6083, "ships": 6084, " marks": 6085, " permission": 6086, "hea": 6087, " brick": 6088, " earn": 6089, " twins": 6090, " ted": 6091, " cooking": 6092, " wandered": 6093, "clay": 6094, " captured": 6095, " stalked": 6096, " moist": 6097, " boot": 6098, " ginger": 6099, "yce": 6100, " ending": 6101, " positive": 6102, " grandma": 6103, " trap": 6104, " classes": 6105, "eight": 6106, " greeted": 6107, "arted": 6108, " roared": 6109, " expert": 6110, "vie": 6111, " pent": 6112, " mercy": 6113, " numbers": 6114, " reput": 6115, " vehicle": 6116, "almost": 6117, "dge": 6118, " lesson": 6119, "prom": 6120, " bowed": 6121, "har": 6122, " beck": 6123, "sequ": 6124, " shattered": 6125, " grunted": 6126, " valentine": 6127, "aste": 6128, " scars": 6129, " licking": 6130, "rell": 6131, "cont": 6132, " puts": 6133, " syn": 6134, " protecting": 6135, "icted": 6136, " wrote": 6137, " declared": 6138, " adrian": 6139, " motor": 6140, " isa": 6141, " worrying": 6142, " ray": 6143, " deliver": 6144, " irritated": 6145, " spite": 6146, " kend": 6147, " nadia": 6148, "cony": 6149, " whiskey": 6150, " twitched": 6151, "agging": 6152, " suffer": 6153, " somewhat": 6154, " proved": 6155, " hollow": 6156, "uing": 6157, " miserable": 6158, " stolen": 6159, " shoving": 6160, " pouring": 6161, " lifetime": 6162, " reflection": 6163, " bliss": 6164, " balcony": 6165, " grocer": 6166, " alert": 6167, "holy": 6168, "ulate": 6169, " cara": 6170, " dismiss": 6171, " season": 6172, " actual": 6173, " vent": 6174, " embarrassment": 6175, " thumbs": 6176, " owner": 6177, " settling": 6178, "mail": 6179, " reminder": 6180, "essing": 6181, "sar": 6182, " stead": 6183, " potential": 6184, " video": 6185, " pout": 6186, " source": 6187, " joking": 6188, " lawyer": 6189, " fridge": 6190, " scrambled": 6191, " traveled": 6192, " retrie": 6193, " sienna": 6194, " responsibility": 6195, "velope": 6196, " emph": 6197, " invisible": 6198, " shimm": 6199, " amber": 6200, " rocks": 6201, " envelope": 6202, "zzy": 6203, " pushes": 6204, " web": 6205, " whispering": 6206, " breathless": 6207, " hunting": 6208, " rounded": 6209, " wipe": 6210, " manip": 6211, " spike": 6212, " waking": 6213, "renaline": 6214, " decent": 6215, " backs": 6216, " research": 6217, " lightning": 6218, " calmly": 6219, "vatore": 6220, " constantly": 6221, "think": 6222, " pregnancy": 6223, " jealousy": 6224, " matching": 6225, " sleeve": 6226, " concentrate": 6227, " deliberately": 6228, "ooked": 6229, "were": 6230, " drake": 6231, " francesca": 6232, " mod": 6233, " smack": 6234, "uses": 6235, "lies": 6236, " estate": 6237, " furrow": 6238, "rily": 6239, " twisting": 6240, " jail": 6241, " rocky": 6242, " miranda": 6243, " ducked": 6244, " crash": 6245, "isto": 6246, "simon": 6247, " wise": 6248, " bubb": 6249, " stripped": 6250, " realm": 6251, " percent": 6252, " survived": 6253, " lore": 6254, " sally": 6255, " healing": 6256, " section": 6257, " muscular": 6258, " curves": 6259, " sideways": 6260, " acknowled": 6261, " attracted": 6262, " secure": 6263, " stirred": 6264, " fond": 6265, " hesitate": 6266, " contempl": 6267, " separate": 6268, "ielle": 6269, "otch": 6270, " stock": 6271, " arrive": 6272, " random": 6273, " circled": 6274, "alie": 6275, " waving": 6276, "attering": 6277, " switch": 6278, " yawn": 6279, " oblig": 6280, " cub": 6281, "armed": 6282, " seats": 6283, "bal": 6284, " wounds": 6285, " dishes": 6286, " justice": 6287, " bryn": 6288, "zzle": 6289, " buildings": 6290, " fence": 6291, "ians": 6292, " daim": 6293, " et": 6294, " available": 6295, " rigid": 6296, "clary": 6297, " childhood": 6298, "step": 6299, " whirled": 6300, "tonight": 6301, " department": 6302, "rifying": 6303, " repeat": 6304, " frag": 6305, " myth": 6306, " lump": 6307, " crashed": 6308, " tempted": 6309, " apr": 6310, "itar": 6311, " hay": 6312, "bar": 6313, "lling": 6314, "through": 6315, "ani": 6316, "dis": 6317, "mia": 6318, " painfully": 6319, " nest": 6320, " tap": 6321, " shuff": 6322, "having": 6323, " slamming": 6324, " puff": 6325, " glaring": 6326, " crowded": 6327, " climax": 6328, " intellig": 6329, " toe": 6330, " surge": 6331, " photograph": 6332, " brian": 6333, " injured": 6334, " palace": 6335, " limbs": 6336, " pear": 6337, "orter": 6338, "aney": 6339, "eling": 6340, " unusual": 6341, " moonlight": 6342, " fears": 6343, "rer": 6344, " ka": 6345, " warlord": 6346, "iable": 6347, " tessa": 6348, " blushed": 6349, " smith": 6350, " protected": 6351, "olai": 6352, " bun": 6353, " anytime": 6354, " distract": 6355, " thomas": 6356, " cush": 6357, " unsure": 6358, "put": 6359, " decisions": 6360, " psychic": 6361, "itable": 6362, " anxiety": 6363, " gathering": 6364, "always": 6365, "orne": 6366, "ulling": 6367, " strained": 6368, " mentally": 6369, " gree": 6370, "uming": 6371, " intend": 6372, " washing": 6373, " lucas": 6374, "kate": 6375, " vivian": 6376, " isaac": 6377, " ankle": 6378, " stradd": 6379, " dryly": 6380, " character": 6381, " slender": 6382, " signed": 6383, " ger": 6384, " gavin": 6385, " exasper": 6386, "clear": 6387, " yelling": 6388, " insides": 6389, " divorce": 6390, " pow": 6391, " icy": 6392, " reminding": 6393, " larger": 6394, " maddie": 6395, " flush": 6396, " stif": 6397, "ibilities": 6398, "bles": 6399, "iverse": 6400, " femin": 6401, " bord": 6402, "assie": 6403, " students": 6404, " creatures": 6405, " remaining": 6406, "tor": 6407, " cotton": 6408, " cloth": 6409, " tyler": 6410, "yard": 6411, "ifer": 6412, "jess": 6413, " mara": 6414, "jase": 6415, "power": 6416, " mane": 6417, "gray": 6418, " roth": 6419, " interrupt": 6420, " ecst": 6421, "icy": 6422, " uniform": 6423, "mes": 6424, " buying": 6425, " rocking": 6426, "aks": 6427, " shots": 6428, " gideon": 6429, " flowed": 6430, " highly": 6431, " companion": 6432, "shot": 6433, " spreading": 6434, " aver": 6435, " mild": 6436, "ads": 6437, " intimid": 6438, " pil": 6439, "elizabeth": 6440, " choices": 6441, " dripping": 6442, " angle": 6443, " annoying": 6444, " connect": 6445, " revenge": 6446, "colored": 6447, "inge": 6448, " sob": 6449, "clair": 6450, " clouds": 6451, " approp": 6452, " reputation": 6453, " cy": 6454, " confirmed": 6455, " switched": 6456, " bend": 6457, "rina": 6458, " torso": 6459, " apology": 6460, " map": 6461, " carter": 6462, " ceremony": 6463, "eter": 6464, " leads": 6465, " fruit": 6466, " chains": 6467, " hardened": 6468, " surreal": 6469, "berry": 6470, " fel": 6471, " fantastic": 6472, " discussion": 6473, " dresser": 6474, " emergency": 6475, " giggle": 6476, " aston": 6477, " newsp": 6478, " progress": 6479, "otted": 6480, "ipper": 6481, " remar": 6482, " rescue": 6483, " dram": 6484, "itary": 6485, "make": 6486, " guessing": 6487, " plates": 6488, " wing": 6489, "uman": 6490, "emis": 6491, " attempted": 6492, "iforn": 6493, " knelt": 6494, " fireplace": 6495, " spat": 6496, " lawn": 6497, "amy": 6498, " dante": 6499, " rolls": 6500, " flow": 6501, " defense": 6502, " mace": 6503, " shed": 6504, " duc": 6505, " motioned": 6506, " stares": 6507, "blake": 6508, " shows": 6509, " vacation": 6510, " seduct": 6511, " megan": 6512, "vis": 6513, " transp": 6514, " milk": 6515, "ahn": 6516, " sticking": 6517, " skull": 6518, "stone": 6519, " erotic": 6520, " clients": 6521, " phil": 6522, " err": 6523, " haw": 6524, "olo": 6525, "ndy": 6526, " ara": 6527, " formal": 6528, " glor": 6529, " aisle": 6530, "run": 6531, " emerged": 6532, "sean": 6533, " der": 6534, " unconscious": 6535, " suspicious": 6536, " wrath": 6537, " insult": 6538, " link": 6539, " bran": 6540, "vere": 6541, " scout": 6542, " handing": 6543, " clutching": 6544, "life": 6545, " californ": 6546, "dle": 6547, "norm": 6548, "agon": 6549, " curling": 6550, " chances": 6551, " singing": 6552, " mascul": 6553, " marked": 6554, " exciting": 6555, "issy": 6556, " drama": 6557, " hatred": 6558, " engaged": 6559, " whore": 6560, " fourth": 6561, " que": 6562, " ally": 6563, " net": 6564, " trunk": 6565, "ero": 6566, " shouting": 6567, " planet": 6568, "oning": 6569, "rol": 6570, " fantas": 6571, " options": 6572, " crushed": 6573, "irteen": 6574, " provide": 6575, "atory": 6576, " sara": 6577, "van": 6578, " suitcase": 6579, " trad": 6580, " lamp": 6581, "resh": 6582, " tempt": 6583, " separated": 6584, " aaron": 6585, "usive": 6586, " soap": 6587, " violence": 6588, " distraction": 6589, "wait": 6590, "known": 6591, " cries": 6592, " american": 6593, "ulated": 6594, " mmm": 6595, " guar": 6596, "blue": 6597, "wat": 6598, " scowl": 6599, " ponytail": 6600, "black": 6601, " haz": 6602, " universe": 6603, " stretching": 6604, " model": 6605, " annoy": 6606, " hem": 6607, "ints": 6608, " compared": 6609, " messed": 6610, " kendall": 6611, "iece": 6612, " neighborhood": 6613, " scoff": 6614, " ze": 6615, " defend": 6616, " health": 6617, " propos": 6618, " bold": 6619, " neg": 6620, " caressed": 6621, " latest": 6622, " ach": 6623, " messages": 6624, "uded": 6625, " endless": 6626, " california": 6627, " amazed": 6628, " bomb": 6629, " questioning": 6630, " brings": 6631, "enses": 6632, "veled": 6633, " slumped": 6634, " leah": 6635, " pinched": 6636, " myster": 6637, " tightening": 6638, "ressing": 6639, " sets": 6640, " alph": 6641, " cain": 6642, "ussy": 6643, " inhaled": 6644, "great": 6645, " sant": 6646, " fae": 6647, " exhaust": 6648, "umph": 6649, " betrayed": 6650, " vig": 6651, " shudder": 6652, " flowing": 6653, " knight": 6654, " realization": 6655, " hopes": 6656, " patient": 6657, "hess": 6658, "inating": 6659, "ns": 6660, "etch": 6661, " rate": 6662, "itional": 6663, " provided": 6664, " tuck": 6665, " ford": 6666, " shiny": 6667, " smacked": 6668, " eyelids": 6669, " ought": 6670, " arrogant": 6671, " tearing": 6672, " crown": 6673, " shell": 6674, " attraction": 6675, "ifting": 6676, " official": 6677, "hot": 6678, " overwhelmed": 6679, " wherever": 6680, " clamped": 6681, " dated": 6682, " ashamed": 6683, " dove": 6684, " drift": 6685, "ites": 6686, " dumped": 6687, "next": 6688, " assure": 6689, "hel": 6690, " madison": 6691, " reward": 6692, " magnific": 6693, "omeday": 6694, " sting": 6695, " touches": 6696, "auses": 6697, " royal": 6698, " impro": 6699, " eggs": 6700, "ouch": 6701, " increased": 6702, " laying": 6703, "unless": 6704, "jason": 6705, "feeling": 6706, " entry": 6707, "ribut": 6708, " reapers": 6709, " andrew": 6710, " flir": 6711, " invite": 6712, " crawl": 6713, " pathetic": 6714, "acon": 6715, " adrenaline": 6716, "rum": 6717, " therap": 6718, " kidna": 6719, " flooded": 6720, " 3": 6721, " nostr": 6722, " wildly": 6723, " grins": 6724, " click": 6725, "vi": 6726, " according": 6727, " argued": 6728, " nightstand": 6729, " sinking": 6730, " frost": 6731, "itching": 6732, "remember": 6733, "und": 6734, " parker": 6735, "sized": 6736, " famous": 6737, " forb": 6738, "hh": 6739, " equally": 6740, " impact": 6741, " fourteen": 6742, " russ": 6743, "beh": 6744, " spit": 6745, "trust": 6746, " magazine": 6747, " approval": 6748, " bang": 6749, " tilt": 6750, " viper": 6751, "iqu": 6752, " dared": 6753, " jasmine": 6754, "rete": 6755, " prompted": 6756, " financ": 6757, "insley": 6758, " parties": 6759, " cookies": 6760, " series": 6761, " visible": 6762, "icles": 6763, "water": 6764, " skill": 6765, " consequ": 6766, "ijah": 6767, "idget": 6768, " tries": 6769, " aly": 6770, " alexandra": 6771, " moder": 6772, " civ": 6773, " nearest": 6774, "nedy": 6775, " dip": 6776, " adding": 6777, " sung": 6778, "away": 6779, " seventeen": 6780, " candle": 6781, " jules": 6782, " ruth": 6783, " appointment": 6784, " mitchell": 6785, "yson": 6786, "moving": 6787, " bury": 6788, " dorm": 6789, "going": 6790, " devast": 6791, " imagining": 6792, " magical": 6793, " stefan": 6794, " duchess": 6795, " basement": 6796, " clasped": 6797, " hopefully": 6798, "hon": 6799, " toilet": 6800, "tled": 6801, " fluttered": 6802, "itions": 6803, "uri": 6804, " warmed": 6805, "wr": 6806, " reaper": 6807, " continues": 6808, " flickered": 6809, " roar": 6810, "stick": 6811, " original": 6812, " horrified": 6813, " husky": 6814, " shortly": 6815, " crossing": 6816, "alled": 6817, " flame": 6818, " misery": 6819, " screams": 6820, " shrugs": 6821, " exchanged": 6822, " waiter": 6823, "behind": 6824, " wrinkled": 6825, " obliv": 6826, "tery": 6827, " chaos": 6828, "soci": 6829, " package": 6830, " immortal": 6831, " tracks": 6832, "sorry": 6833, " topic": 6834, " aroused": 6835, " bob": 6836, "wes": 6837, "glas": 6838, " string": 6839, " george": 6840, " penetr": 6841, "ribly": 6842, " altern": 6843, " imagination": 6844, "idra": 6845, " dried": 6846, "headed": 6847, " exquis": 6848, " cups": 6849, " owen": 6850, " borrow": 6851, "avier": 6852, " aloud": 6853, " nostrils": 6854, " acknowledge": 6855, " sull": 6856, " tunnel": 6857, "osie": 6858, " menu": 6859, "ops": 6860, " climbing": 6861, " nuts": 6862, " swinging": 6863, " carved": 6864, "cut": 6865, " community": 6866, " pages": 6867, " associ": 6868, " rod": 6869, " currently": 6870, " colby": 6871, "antically": 6872, " flung": 6873, " enemies": 6874, " candy": 6875, " intri": 6876, " thirteen": 6877, " stephen": 6878, "guer": 6879, " flinched": 6880, " fairly": 6881, " gloves": 6882, " affair": 6883, " mystery": 6884, " mock": 6885, " presses": 6886, " dee": 6887, " satin": 6888, " chann": 6889, " grey": 6890, " conference": 6891, " paced": 6892, " jean": 6893, " thoughtful": 6894, "atherine": 6895, " crept": 6896, " chief": 6897, " grat": 6898, " buff": 6899, "guard": 6900, " slightest": 6901, " lifts": 6902, " richard": 6903, "guerite": 6904, " perf": 6905, " stagg": 6906, " frowning": 6907, " kevin": 6908, " sloane": 6909, " register": 6910, " curtain": 6911, " cuff": 6912, " prepare": 6913, " greed": 6914, "hael": 6915, " radio": 6916, " tooth": 6917, "hett": 6918, " included": 6919, "ulations": 6920, " suffered": 6921, "ookie": 6922, "kno": 6923, " funeral": 6924, "idently": 6925, " barte": 6926, "alice": 6927, " apollo": 6928, " atl": 6929, " steering": 6930, "today": 6931, "don": 6932, "uary": 6933, " refusing": 6934, " scattered": 6935, " wy": 6936, " regan": 6937, " sought": 6938, "mrs": 6939, " erin": 6940, " quiver": 6941, " jun": 6942, " juice": 6943, " floors": 6944, " mountains": 6945, " measure": 6946, " sucks": 6947, "riff": 6948, " liz": 6949, " depths": 6950, " recent": 6951, " sandwich": 6952, "kim": 6953, " lor": 6954, "domen": 6955, "orate": 6956, " prior": 6957, " desperation": 6958, " strap": 6959, " sou": 6960, " staircase": 6961, " males": 6962, " transfer": 6963, " silky": 6964, " tierney": 6965, "othaire": 6966, " appl": 6967, " sipped": 6968, " jobs": 6969, " reject": 6970, " suffering": 6971, " witches": 6972, " panicked": 6973, " charged": 6974, " indy": 6975, " complex": 6976, " wiping": 6977, " rab": 6978, " crouched": 6979, " influ": 6980, " marrying": 6981, "arms": 6982, "button": 6983, " mile": 6984, " haunted": 6985, " roughly": 6986, " sighs": 6987, " kar": 6988, " spraw": 6989, " bounced": 6990, "aying": 6991, "rafe": 6992, " pounds": 6993, " crashing": 6994, "arette": 6995, "iped": 6996, "covered": 6997, " throne": 6998, " conven": 6999, "ront": 7000, " exception": 7001, " vlad": 7002, " medical": 7003, " incident": 7004, " sire": 7005, " sliced": 7006, " matthew": 7007, " concrete": 7008, " elle": 7009, " overhead": 7010, "bones": 7011, " calvin": 7012, "word": 7013, " gal": 7014, " embarrassing": 7015, " foyer": 7016, " consumed": 7017, "istered": 7018, "ige": 7019, " floating": 7020, " autumn": 7021, " sacrifice": 7022, " traveling": 7023, " audience": 7024, "clearly": 7025, " melanie": 7026, "ceeded": 7027, "itha": 7028, "josh": 7029, "ories": 7030, " blurted": 7031, " creating": 7032, " cigarette": 7033, " asp": 7034, " adop": 7035, " mansion": 7036, " liar": 7037, "lasses": 7038, " guns": 7039, "william": 7040, " choo": 7041, " hits": 7042, " seeking": 7043, " whimp": 7044, "mary": 7045, " jac": 7046, " profess": 7047, " impul": 7048, " arguing": 7049, " confront": 7050, " ellis": 7051, " comforting": 7052, " diego": 7053, "wolf": 7054, " evalle": 7055, " kay": 7056, " grasped": 7057, " barked": 7058, "silence": 7059, " avoided": 7060, " preparing": 7061, " goal": 7062, " compliment": 7063, "ology": 7064, " inclined": 7065, " successful": 7066, " feminine": 7067, " roman": 7068, " judgment": 7069, " rapidly": 7070, " explode": 7071, "inte": 7072, "rigg": 7073, " alter": 7074, "natural": 7075, " strate": 7076, " trailer": 7077, " defeat": 7078, " mallory": 7079, "event": 7080, " impatient": 7081, " matched": 7082, " feb": 7083, " false": 7084, " dallas": 7085, " arrow": 7086, "ainted": 7087, " appears": 7088, " appreciated": 7089, " pussy": 7090, " explore": 7091, " instincts": 7092, " thousands": 7093, " mama": 7094, " remark": 7095, "osure": 7096, " subtle": 7097, "ari": 7098, " harley": 7099, " routine": 7100, " spoon": 7101, " reck": 7102, " nicole": 7103, "child": 7104, " unlocked": 7105, " naught": 7106, "olas": 7107, "hunters": 7108, " craved": 7109, " ainsley": 7110, " mackenzie": 7111, "hart": 7112, " appropriate": 7113, " introduced": 7114, "umpled": 7115, " hundreds": 7116, " plus": 7117, " thorne": 7118, "iate": 7119, " kelly": 7120, " masculine": 7121, " desert": 7122, "mic": 7123, " aura": 7124, " doin": 7125, " guided": 7126, "itute": 7127, " journey": 7128, " tax": 7129, "ada": 7130, "assion": 7131, " miracle": 7132, " railing": 7133, " apple": 7134, "ighing": 7135, " loaded": 7136, " taut": 7137, " collect": 7138, "ardon": 7139, " souls": 7140, "ivan": 7141, " protested": 7142, " tack": 7143, " instinctively": 7144, " strands": 7145, " devour": 7146, "low": 7147, " salt": 7148, " reb": 7149, "war": 7150, " grunt": 7151, " basically": 7152, " scratch": 7153, " cliff": 7154, "jordan": 7155, "rena": 7156, " frey": 7157, " reluctantly": 7158, "keeper": 7159, " grabs": 7160, " replace": 7161, " horiz": 7162, " lazy": 7163, " dusty": 7164, " crit": 7165, "gers": 7166, " cuts": 7167, " specific": 7168, " somebody": 7169, " stil": 7170, "jesus": 7171, "rien": 7172, " tro": 7173, " gloss": 7174, " slim": 7175, " deadly": 7176, "cause": 7177, " cowboy": 7178, " poked": 7179, "oke": 7180, " wary": 7181, " grac": 7182, " grant": 7183, " distinct": 7184, "alian": 7185, " files": 7186, " indul": 7187, "aries": 7188, " congr": 7189, " holiday": 7190, "gree": 7191, " sympathy": 7192, " lingered": 7193, " legal": 7194, " healed": 7195, " bottles": 7196, " limp": 7197, " illum": 7198, " swimming": 7199, " dece": 7200, " sher": 7201, "uh": 7202, " approaching": 7203, " muffled": 7204, " sons": 7205, "tre": 7206, " murdered": 7207, " combination": 7208, " sweeping": 7209, " hearts": 7210, " verity": 7211, "jared": 7212, "actually": 7213, " modern": 7214, " snake": 7215, "grand": 7216, " vast": 7217, " goodness": 7218, " brightly": 7219, " finds": 7220, "atter": 7221, " greeting": 7222, " safely": 7223, " impressive": 7224, " boxers": 7225, " scratched": 7226, " strokes": 7227, " thrill": 7228, " folks": 7229, "seat": 7230, "tin": 7231, " inev": 7232, " describe": 7233, " servants": 7234, " counted": 7235, " smells": 7236, " slice": 7237, "eve": 7238, " hopped": 7239, "victoria": 7240, " surprisingly": 7241, " magnificent": 7242, " charity": 7243, "wom": 7244, " mont": 7245, " dragon": 7246, "isabella": 7247, "essert": 7248, " toy": 7249, " frantic": 7250, " wider": 7251, " cott": 7252, " robert": 7253, " triumph": 7254, "izes": 7255, " vance": 7256, "avis": 7257, " rasp": 7258, " escort": 7259, " adjusted": 7260, " dor": 7261, " nix": 7262, " blowing": 7263, " toler": 7264, " detective": 7265, " maria": 7266, " wallet": 7267, " mouths": 7268, " pacing": 7269, "lings": 7270, " sniffed": 7271, "aware": 7272, " directions": 7273, " slides": 7274, " dominic": 7275, " advent": 7276, " barg": 7277, "cture": 7278, " manager": 7279, " alright": 7280, " sunglasses": 7281, "said": 7282, " signific": 7283, " ham": 7284, " fi": 7285, "dox": 7286, " affected": 7287, " fragile": 7288, " clapped": 7289, " females": 7290, " someday": 7291, " east": 7292, " irre": 7293, " bee": 7294, " suv": 7295, " strangely": 7296, " tortured": 7297, " smoothly": 7298, " earned": 7299, " stabbed": 7300, " cron": 7301, " fade": 7302, " reassuring": 7303, "eds": 7304, " announce": 7305, " darker": 7306, " crimin": 7307, " churn": 7308, "xie": 7309, " wolves": 7310, "spe": 7311, "charlotte": 7312, " pave": 7313, " oil": 7314, "jenks": 7315, "arre": 7316, " blouse": 7317, " glory": 7318, "unte": 7319, " gruff": 7320, " items": 7321, "pulling": 7322, " withdrew": 7323, " bartender": 7324, " irritation": 7325, " benny": 7326, " forearm": 7327, " meas": 7328, " guide": 7329, " aeron": 7330, "ounted": 7331, "abby": 7332, " useless": 7333, " emerald": 7334, " inn": 7335, " dessert": 7336, " cudd": 7337, " campus": 7338, " brun": 7339, " properly": 7340, " wraps": 7341, " overhe": 7342, " lighting": 7343, " fulf": 7344, " beam": 7345, " unbutton": 7346, " directed": 7347, " trade": 7348, "olded": 7349, " studio": 7350, "alec": 7351, "ula": 7352, " volunte": 7353, " shore": 7354, "nie": 7355, " jewelry": 7356, " gifts": 7357, " lisa": 7358, " relationships": 7359, " blinking": 7360, " dammit": 7361, "white": 7362, " worries": 7363, " adorable": 7364, " engagement": 7365, " whip": 7366, " folds": 7367, "hannah": 7368, "zoe": 7369, "lexi": 7370, " quir": 7371, "nec": 7372, "aches": 7373, " jill": 7374, "free": 7375, " hau": 7376, " trey": 7377, " qual": 7378, " automatically": 7379, " accus": 7380, " hugging": 7381, "sin": 7382, " player": 7383, "wow": 7384, " assh": 7385, " floated": 7386, " reyes": 7387, " stew": 7388, "violet": 7389, " urged": 7390, " forming": 7391, " jonathan": 7392, "rous": 7393, " curtains": 7394, " precisely": 7395, " unknown": 7396, " ink": 7397, " knox": 7398, "etri": 7399, " backing": 7400, " stealing": 7401, " dreaming": 7402, " saint": 7403, " groom": 7404, "fight": 7405, " hire": 7406, "bro": 7407, "ogen": 7408, "several": 7409, " inviting": 7410, " las": 7411, " sele": 7412, "shaking": 7413, " flirt": 7414, " unfortunately": 7415, "inside": 7416, "seven": 7417, " messy": 7418, "adam": 7419, "iration": 7420, "isc": 7421, "believ": 7422, " fallon": 7423, " chamber": 7424, "ox": 7425, " surged": 7426, " descended": 7427, "cameron": 7428, " controlled": 7429, " jay": 7430, " suspicion": 7431, "deep": 7432, " instructions": 7433, "zanne": 7434, " darius": 7435, " student": 7436, " mistress": 7437, " clayton": 7438, " pleading": 7439, " natalie": 7440, " breaks": 7441, " taller": 7442, " zipper": 7443, " curb": 7444, " fiercely": 7445, "michael": 7446, "aldar": 7447, " cabinet": 7448, " brooke": 7449, " trait": 7450, " cheap": 7451, " peeked": 7452, " shallow": 7453, "wild": 7454, " grayson": 7455, " pix": 7456, " soaked": 7457, " rack": 7458, " tara": 7459, "topher": 7460, " backseat": 7461, " sweetie": 7462, " committed": 7463, " sincere": 7464, " suits": 7465, " coop": 7466, "'d": 7467, " lauren": 7468, " swirling": 7469, " remains": 7470, " bol": 7471, " perfection": 7472, "james": 7473, " politely": 7474, " replies": 7475, " justin": 7476, "arek": 7477, "astically": 7478, " mum": 7479, " sleeves": 7480, "fun": 7481, " benefit": 7482, " ripping": 7483, " sworn": 7484, "oes": 7485, " twitch": 7486, " calcul": 7487, "aren": 7488, " quarter": 7489, " celia": 7490, "layne": 7491, " bice": 7492, " stable": 7493, " salad": 7494, " rav": 7495, "lock": 7496, " promises": 7497, "cara": 7498, "dark": 7499, " nikki": 7500, " priest": 7501, " expand": 7502, " env": 7503, " thoroughly": 7504, " murmur": 7505, "anyway": 7506, " generous": 7507, " feeding": 7508, " daily": 7509, " bi": 7510, "hip": 7511, " mud": 7512, " uneasy": 7513, " consequences": 7514, " require": 7515, " loyalty": 7516, "andre": 7517, " laken": 7518, " officially": 7519, " congrat": 7520, " dresses": 7521, " stake": 7522, " theory": 7523, " rasped": 7524, " genuinely": 7525, " excl": 7526, " equal": 7527, "var": 7528, " confirm": 7529, "urt": 7530, " fortune": 7531, " maneu": 7532, " puppy": 7533, " headache": 7534, " nipples": 7535, " annoyance": 7536, " polished": 7537, " domini": 7538, " salvatore": 7539, " cough": 7540, " caroline": 7541, " spill": 7542, "esse": 7543, "olyn": 7544, " intently": 7545, " carl": 7546, " chasing": 7547, "anton": 7548, "rob": 7549, " introduce": 7550, "bry": 7551, " glowed": 7552, " hast": 7553, "ooled": 7554, " efforts": 7555, "sav": 7556, " skipped": 7557, " corrected": 7558, " status": 7559, "leaning": 7560, " prayed": 7561, " sale": 7562, " guardian": 7563, " micah": 7564, " symb": 7565, " jeremy": 7566, " contained": 7567, " franc": 7568, "etic": 7569, " romance": 7570, " assign": 7571, "ville": 7572, "saetan": 7573, " hyp": 7574, " temporary": 7575, "lucien": 7576, " ronin": 7577, " thrusting": 7578, " awe": 7579, " blankets": 7580, " sonia": 7581, " scor": 7582, " frantically": 7583, " napkin": 7584, " fingern": 7585, "eventually": 7586, "better": 7587, " vicious": 7588, " hovering": 7589, "uish": 7590, "inda": 7591, "helle": 7592, " keely": 7593, " roses": 7594, " highway": 7595, " deepened": 7596, " partners": 7597, " govern": 7598, " ecstasy": 7599, " term": 7600, " odds": 7601, " blocked": 7602, " sports": 7603, "itated": 7604, "udge": 7605, " gabriel": 7606, " sheridan": 7607, " landon": 7608, "lucivar": 7609, " sheep": 7610, " brutal": 7611, " whimper": 7612, " ming": 7613, "fucking": 7614, " explosion": 7615, "dged": 7616, " swirled": 7617, " liking": 7618, "ifully": 7619, " offers": 7620, " darcy": 7621, "outhed": 7622, " bubble": 7623, " scre": 7624, " lect": 7625, " believing": 7626, " wasted": 7627, " awareness": 7628, " minds": 7629, " cronus": 7630, " recover": 7631, " product": 7632, " reacted": 7633, " spilling": 7634, "riger": 7635, " indicated": 7636, "enix": 7637, "getting": 7638, " jones": 7639, " scott": 7640, "strom": 7641, " dave": 7642, "nik": 7643, " permanent": 7644, " hovered": 7645, " coast": 7646, "ishly": 7647, "elling": 7648, " savage": 7649, " skye": 7650, " cringed": 7651, " personally": 7652, " helps": 7653, " backpack": 7654, " wounded": 7655, " financial": 7656, "ryker": 7657, " inher": 7658, " picks": 7659, " refriger": 7660, "nifer": 7661, "ivy": 7662, " tighten": 7663, "pa": 7664, " impr": 7665, " coward": 7666, " craft": 7667, " tad": 7668, " regarded": 7669, " thrusts": 7670, " repres": 7671, " dealt": 7672, "second": 7673, " molly": 7674, " snuggled": 7675, " anybody": 7676, " symbol": 7677, " lia": 7678, "field": 7679, "dalton": 7680, " estab": 7681, " shred": 7682, "mind": 7683, " squinted": 7684, " layla": 7685, " hauled": 7686, " gazing": 7687, " pig": 7688, " betrayal": 7689, "verance": 7690, "ae": 7691, " intentions": 7692, " italian": 7693, " based": 7694, "xed": 7695, " mand": 7696, " tate": 7697, " function": 7698, " shocking": 7699, " tiss": 7700, " cloak": 7701, "trist": 7702, "aphne": 7703, " naturally": 7704, " sang": 7705, " haze": 7706, " jab": 7707, " branch": 7708, " disaster": 7709, " furrowed": 7710, " dancer": 7711, " candace": 7712, " regardless": 7713, " defin": 7714, " ensure": 7715, " gaped": 7716, " rit": 7717, " exquisite": 7718, " mini": 7719, "ulating": 7720, "perfect": 7721, " carriage": 7722, "verity": 7723, " snapping": 7724, " foreign": 7725, "ienne": 7726, " gleaming": 7727, "cide": 7728, " ped": 7729, " prey": 7730, " mysterious": 7731, "talk": 7732, " fever": 7733, "racting": 7734, " lacey": 7735, " sleepy": 7736, " dates": 7737, " nudged": 7738, " stomped": 7739, " som": 7740, " edward": 7741, " bert": 7742, "thankfully": 7743, " tipto": 7744, " bites": 7745, " lasted": 7746, " bald": 7747, "uel": 7748, "iron": 7749, " emphas": 7750, " perched": 7751, " shoe": 7752, " valky": 7753, " countered": 7754, "thirty": 7755, "ierra": 7756, " corn": 7757, " terrifying": 7758, " locks": 7759, " mim": 7760, " talon": 7761, " tact": 7762, " winning": 7763, " moans": 7764, " lush": 7765, " site": 7766, " possession": 7767, " nightmares": 7768, " vaguely": 7769, " blocks": 7770, " severe": 7771, "sum": 7772, "ixture": 7773, " lil": 7774, " joining": 7775, " cupping": 7776, " flaw": 7777, " cottage": 7778, " jonah": 7779, " flirting": 7780, " piercing": 7781, " acade": 7782, " oddly": 7783, "ctors": 7784, " involve": 7785, "thur": 7786, " cautiously": 7787, "ggy": 7788, " creek": 7789, " denied": 7790, " laced": 7791, " cameras": 7792, " cares": 7793, " prent": 7794, " prentice": 7795, " appet": 7796, " lovers": 7797, " newspaper": 7798, " sanct": 7799, " douglas": 7800, " gemma": 7801, " hyster": 7802, " sped": 7803, " offended": 7804, "holding": 7805, " bark": 7806, " negot": 7807, " civil": 7808, " occupied": 7809, " soldiers": 7810, " sookie": 7811, " blunt": 7812, " lic": 7813, "sebastian": 7814, " sparkling": 7815, " heaved": 7816, " abilities": 7817, "isk": 7818, " seductive": 7819, " visited": 7820, " claud": 7821, "fits": 7822, " bracelet": 7823, " sorts": 7824, " shane": 7825, " wishes": 7826, " scooted": 7827, " artemis": 7828, " finishing": 7829, "ags": 7830, " sarcasm": 7831, " delighted": 7832, " encounter": 7833, "storm": 7834, " tasting": 7835, " gau": 7836, " bills": 7837, " arc": 7838, " noticing": 7839, "moon": 7840, " crisp": 7841, " clare": 7842, "hew": 7843, " penthouse": 7844, " merc": 7845, "uch": 7846, " scooped": 7847, " eleanor": 7848, " gasping": 7849, " crim": 7850, " chip": 7851, " worthy": 7852, " naughty": 7853, " stung": 7854, " tremble": 7855, " tape": 7856, " military": 7857, " dash": 7858, " texted": 7859, " krist": 7860, " sensations": 7861, "bella": 7862, " carly": 7863, " meth": 7864, "reaching": 7865, " 4": 7866, " skip": 7867, " intru": 7868, " mirr": 7869, " scarlet": 7870, "arel": 7871, " mistakes": 7872, " flare": 7873, " continuing": 7874, " joked": 7875, " ille": 7876, " degree": 7877, " states": 7878, " coven": 7879, " personality": 7880, " flor": 7881, " kil": 7882, " assuming": 7883, " distr": 7884, "angel": 7885, " amanda": 7886, " darlin": 7887, " chewed": 7888, " dump": 7889, " lid": 7890, " syl": 7891, "rain": 7892, " raven": 7893, " blocking": 7894, " rein": 7895, "need": 7896, " trigger": 7897, " accepting": 7898, " internet": 7899, "uther": 7900, " injuries": 7901, " tanner": 7902, " 5": 7903, "huh": 7904, " relent": 7905, " clipped": 7906, " monst": 7907, " educ": 7908, " frequ": 7909, " differently": 7910, " contents": 7911, "zar": 7912, "conscious": 7913, " typical": 7914, "ifying": 7915, "gor": 7916, " scoffed": 7917, "morgan": 7918, "tling": 7919, " refrigerator": 7920, " happier": 7921, " mommy": 7922, " tits": 7923, " guarant": 7924, " mocking": 7925, " burns": 7926, " anya": 7927, " fier": 7928, " elder": 7929, "ndry": 7930, " arrival": 7931, " frightening": 7932, "amiliar": 7933, " clenching": 7934, " trailing": 7935, "robe": 7936, " victory": 7937, "helen": 7938, " framed": 7939, " sweetly": 7940, " entering": 7941, " absence": 7942, " cer": 7943, " ellie": 7944, "ending": 7945, "seriously": 7946, " meetings": 7947, " range": 7948, " hazel": 7949, "colin": 7950, " discussing": 7951, "ounded": 7952, " pra": 7953, " arrangement": 7954, " coax": 7955, " bearing": 7956, " popular": 7957, "akable": 7958, " recalled": 7959, "graham": 7960, " beau": 7961, " admire": 7962, "jackson": 7963, "unlike": 7964, " sibyl": 7965, " bending": 7966, " fled": 7967, "box": 7968, "zens": 7969, "dou": 7970, " handled": 7971, " title": 7972, " glorious": 7973, " designed": 7974, " registered": 7975, " clinging": 7976, " retorted": 7977, " medic": 7978, "imil": 7979, " q": 7980, " sleek": 7981, " spots": 7982, " yel": 7983, "gues": 7984, "list": 7985, "estly": 7986, "girl": 7987, " brew": 7988, "ody": 7989, " niall": 7990, "occ": 7991, " lighter": 7992, " gargo": 7993, " catcher": 7994, " bump": 7995, " deciding": 7996, " desired": 7997, "aylor": 7998, " saun": 7999, " ella": 8000, " profile": 8001, "gabe": 8002, "entin": 8003, " mex": 8004, "hey": 8005, " crimson": 8006, " sentin": 8007, "aiting": 8008, " rumors": 8009, " bouncing": 8010, " surroundings": 8011, "anches": 8012, " raked": 8013, " wealth": 8014, " motorcy": 8015, " jessie": 8016, "ucing": 8017, " sweaty": 8018, "door": 8019, "retched": 8020, " novel": 8021, " launched": 8022, "ali": 8023, "sitting": 8024, "ooling": 8025, " related": 8026, "inkling": 8027, " plant": 8028, "claim": 8029, " murmurs": 8030, "nobody": 8031, " huffed": 8032, " insul": 8033, " iv": 8034, " rif": 8035, "half": 8036, " occasionally": 8037, "cole": 8038, " willingly": 8039, "mod": 8040, " beaten": 8041, " josie": 8042, "dylan": 8043, " freaked": 8044, " beard": 8045, " strolled": 8046, "gun": 8047, " execut": 8048, " portal": 8049, " mes": 8050, "iter": 8051, " teenager": 8052, " whimpered": 8053, " scroll": 8054, " senior": 8055, " cassie": 8056, " pumping": 8057, " blades": 8058, " valkyrie": 8059, " honesty": 8060, " outrage": 8061, " professor": 8062, " catches": 8063, " daring": 8064, " discussed": 8065, " kitten": 8066, " leaped": 8067, "tristan": 8068, "oenix": 8069, " erup": 8070, "face": 8071, " jose": 8072, " jade": 8073, "pat": 8074, " glist": 8075, " socks": 8076, " shelf": 8077, "esy": 8078, " disgusted": 8079, "cheres": 8080, " film": 8081, " georgie": 8082, "zes": 8083, "acles": 8084, "crap": 8085, " greater": 8086, "acc": 8087, " candles": 8088, " baseball": 8089, "antha": 8090, " pictured": 8091, " located": 8092, " sev": 8093, "lah": 8094, " conversations": 8095, " striking": 8096, " aimed": 8097, " grounds": 8098, " counting": 8099, " elab": 8100, " caressing": 8101, " swayed": 8102, "ai": 8103, "new": 8104, " sober": 8105, "chan": 8106, " supplies": 8107, "sers": 8108, "lay": 8109, " shelter": 8110, "ounds": 8111, " persu": 8112, " strangers": 8113, " visiting": 8114, " ber": 8115, " anch": 8116, " solution": 8117, " tuesday": 8118, " jan": 8119, " alpha": 8120, " grocery": 8121, " merit": 8122, "eting": 8123, " disappearing": 8124, "alley": 8125, " martin": 8126, " freezing": 8127, " gang": 8128, "closing": 8129, " wreck": 8130, " shutting": 8131, " bore": 8132, " steam": 8133, " veget": 8134, "enne": 8135, "thorne": 8136, "gil": 8137, "spo": 8138, " discon": 8139, " equip": 8140, " clever": 8141, " stove": 8142, " load": 8143, " online": 8144, " colton": 8145, "gia": 8146, " dazed": 8147, " injury": 8148, "ta": 8149, "ei": 8150, " decorated": 8151, " passionate": 8152, " employees": 8153, " hopeful": 8154, "ification": 8155, "uttered": 8156, " capture": 8157, " ounce": 8158, " scraped": 8159, " pitch": 8160, " interior": 8161, " nause": 8162, " ego": 8163, " playful": 8164, "shes": 8165, "pier": 8166, " diana": 8167, "between": 8168, " secretary": 8169, " tracing": 8170, " andrea": 8171, " ninet": 8172, " sorrow": 8173, " explaining": 8174, " paperwork": 8175, " praying": 8176, " greek": 8177, " treatment": 8178, " celebrate": 8179, " results": 8180, " email": 8181, "filled": 8182, "mont": 8183, " leapt": 8184, " unique": 8185, " grade": 8186, " rational": 8187, " neut": 8188, "sweet": 8189, " shone": 8190, " bron": 8191, " biz": 8192, " bikini": 8193, " craving": 8194, " caden": 8195, " accidentally": 8196, " jewels": 8197, "pret": 8198, "trying": 8199, " league": 8200, "within": 8201, " slipp": 8202, " referring": 8203, " media": 8204, " possessive": 8205, "zzed": 8206, " daylight": 8207, " royce": 8208, " marched": 8209, " werewolf": 8210, " suggestion": 8211, " fading": 8212, " weep": 8213, " limo": 8214, " accused": 8215, " scal": 8216, "pend": 8217, " seek": 8218, " unbeliev": 8219, " emerson": 8220, " showered": 8221, " investigation": 8222, " fucked": 8223, " bruises": 8224, " ticket": 8225, " blown": 8226, " exerc": 8227, " barrier": 8228, "celyn": 8229, "hearted": 8230, " resent": 8231, "rich": 8232, " prospect": 8233, " homes": 8234, "uments": 8235, "udging": 8236, "rene": 8237, "omi": 8238, "lucky": 8239, " nail": 8240, " starving": 8241, " 9": 8242, " whoa": 8243, " laundry": 8244, " bared": 8245, "oms": 8246, "smiling": 8247, " equipment": 8248, " frankie": 8249, " gig": 8250, " quality": 8251, "gued": 8252, " immediate": 8253, "iffany": 8254, " jolt": 8255, " angrily": 8256, "ench": 8257, "misty": 8258, " remarked": 8259, " plunged": 8260, "luckily": 8261, " tee": 8262, " univers": 8263, " dizzy": 8264, " grinding": 8265, " drifting": 8266, " fund": 8267, " softness": 8268, "mn": 8269, "ipher": 8270, " guitar": 8271, " indust": 8272, " shrieked": 8273, "athed": 8274, "pes": 8275, " chand": 8276, " sweetness": 8277, " revel": 8278, " elijah": 8279, " buzzed": 8280, " fascinated": 8281, "such": 8282, " appeal": 8283, " paw": 8284, "yton": 8285, " hiss": 8286, " packing": 8287, " compre": 8288, " trusting": 8289, "acted": 8290, " restless": 8291, " relaxing": 8292, " disappro": 8293, " reflected": 8294, " unhappy": 8295, " pained": 8296, "sab": 8297, "green": 8298, " bedside": 8299, " eyeing": 8300, " nape": 8301, " awhile": 8302, "agers": 8303, " motel": 8304, " resisted": 8305, "ishment": 8306, " lothaire": 8307, "may": 8308, " coinc": 8309, "normally": 8310, " demands": 8311, " drawled": 8312, "thias": 8313, " blazing": 8314, " ga": 8315, "kind": 8316, " value": 8317, " glittering": 8318, "fact": 8319, " journal": 8320, " helmet": 8321, " counts": 8322, "kell": 8323, " theo": 8324, "huinn": 8325, "eez": 8326, " ruby": 8327, " bund": 8328, "willing": 8329, " choke": 8330, "far": 8331, " brooks": 8332, " releasing": 8333, " cradled": 8334, "earing": 8335, "inic": 8336, " recovered": 8337, " eur": 8338, " sus": 8339, " neighbors": 8340, "ooper": 8341, " wrest": 8342, " commitment": 8343, " scenar": 8344, " tattoos": 8345, " sometime": 8346, " oak": 8347, " cult": 8348, " duck": 8349, " attempting": 8350, "cra": 8351, " staffan": 8352, " envelop": 8353, " lethal": 8354, " elliot": 8355, "sive": 8356, "aa": 8357, "dri": 8358, "win": 8359, " tower": 8360, " everybody": 8361, " landsc": 8362, " rattled": 8363, " photograp": 8364, " crooked": 8365, " maintain": 8366, " session": 8367, " gleam": 8368, "pain": 8369, "viv": 8370, " bumps": 8371, "ida": 8372, " signal": 8373, " gam": 8374, " ours": 8375, " creepy": 8376, " identity": 8377, " gn": 8378, " fellow": 8379, "twenty": 8380, " queens": 8381, " pam": 8382, "adogan": 8383, "whether": 8384, " choking": 8385, "geor": 8386, "mates": 8387, " archer": 8388, " focusing": 8389, " inevitable": 8390, " emotionally": 8391, "ieving": 8392, "lucy": 8393, " increasing": 8394, " servant": 8395, " kingdom": 8396, " eden": 8397, " greatest": 8398, " statue": 8399, "ums": 8400, " raz": 8401, " assass": 8402, "surpr": 8403, " eagerly": 8404, " mob": 8405, " lessons": 8406, " guarantee": 8407, " ware": 8408, " seized": 8409, " lounge": 8410, "sat": 8411, "hab": 8412, " flicker": 8413, " desig": 8414, "icient": 8415, "rad": 8416, " seemingly": 8417, " gallery": 8418, " tones": 8419, "enth": 8420, "tam": 8421, " abdomen": 8422, "acular": 8423, " neatly": 8424, " backyard": 8425, " madness": 8426, " tempting": 8427, " dialed": 8428, " scalp": 8429, "stay": 8430, " lege": 8431, "usually": 8432, " heir": 8433, " patio": 8434, " positioned": 8435, " temples": 8436, "thinking": 8437, " questioned": 8438, "dro": 8439, " flipping": 8440, " pump": 8441, " asshole": 8442, " nah": 8443, " ordinary": 8444, "jim": 8445, " hating": 8446, " inward": 8447, " exagger": 8448, " convincing": 8449, " widen": 8450, " witnessed": 8451, " seed": 8452, " fluff": 8453, " gazes": 8454, " zero": 8455, " francis": 8456, " ticked": 8457, " pierced": 8458, " enthusiasm": 8459, " ens": 8460, " muse": 8461, " artist": 8462, " innocence": 8463, " basic": 8464, "rebecca": 8465, " lunged": 8466, " arrested": 8467, "jonas": 8468, " noelle": 8469, "bb": 8470, "iple": 8471, " aggress": 8472, " bizarre": 8473, " skinny": 8474, " decades": 8475, " nak": 8476, " slit": 8477, "ware": 8478, " shades": 8479, "asant": 8480, " reasonable": 8481, " patch": 8482, "ayna": 8483, " thankful": 8484, " england": 8485, "isabelle": 8486, "abbing": 8487, " curiously": 8488, " ballroom": 8489, " sparks": 8490, " deserves": 8491, "quar": 8492, " clasp": 8493, " burden": 8494, " kin": 8495, " helen": 8496, " tumbled": 8497, " teaching": 8498, "yenne": 8499, " sofie": 8500, "mason": 8501, " clench": 8502, " intimacy": 8503, " doubts": 8504, "nine": 8505, " slacks": 8506, " potat": 8507, " denying": 8508, "point": 8509, "broo": 8510, " gry": 8511, "fly": 8512, " undo": 8513, " passage": 8514, " concentrated": 8515, "cha": 8516, " straining": 8517, " camille": 8518, " resolve": 8519, " pauses": 8520, "later": 8521, "suit": 8522, " locking": 8523, "nice": 8524, " locker": 8525, " tapping": 8526, "chief": 8527, " motions": 8528, " disgu": 8529, " admired": 8530, " ali": 8531, " bits": 8532, " soldier": 8533, "marshall": 8534, " colored": 8535, " serving": 8536, " mutter": 8537, " despair": 8538, " jerking": 8539, " pup": 8540, " chips": 8541, " devyn": 8542, "cassidy": 8543, " sobs": 8544, " sentinel": 8545, "colm": 8546, " momentarily": 8547, "idual": 8548, "adie": 8549, " gryph": 8550, " sensing": 8551, " jar": 8552, " sullivan": 8553, " nep": 8554, " branches": 8555, " circling": 8556, " colo": 8557, "nes": 8558, " alt": 8559, " layer": 8560, "rom": 8561, " regretted": 8562, " loosened": 8563, "breat": 8564, " offense": 8565, " goose": 8566, " waistband": 8567, " diner": 8568, " century": 8569, " indication": 8570, " brandt": 8571, " government": 8572, " cue": 8573, " scarf": 8574, " domen": 8575, "jaenelle": 8576, " disag": 8577, " newly": 8578, "beaut": 8579, " tops": 8580, " groin": 8581, " dozens": 8582, " evelyn": 8583, " domenico": 8584, "styx": 8585, "name": 8586, " noises": 8587, " stones": 8588, " oblivious": 8589, " closes": 8590, " forgetting": 8591, "bow": 8592, " schedul": 8593, "sha": 8594, "mall": 8595, " cadogan": 8596, " absently": 8597, "comed": 8598, " lame": 8599, "much": 8600, " vik": 8601, " perfume": 8602, "bad": 8603, "umbles": 8604, " dangling": 8605, "roth": 8606, " pleaded": 8607, " sprang": 8608, "oved": 8609, "kane": 8610, "rielle": 8611, "ologet": 8612, " scul": 8613, " stained": 8614, "faced": 8615, " mixture": 8616, " gratitude": 8617, " rash": 8618, " stance": 8619, " braden": 8620, " persp": 8621, " cases": 8622, " method": 8623, "flies": 8624, "iffe": 8625, " bertie": 8626, " incredulous": 8627, " accur": 8628, "abelle": 8629, " disturbing": 8630, " timing": 8631, " variety": 8632, " sadly": 8633, " tant": 8634, " chapter": 8635, " prize": 8636, " kinda": 8637, " caf": 8638, " influence": 8639, " phr": 8640, " stormed": 8641, " obsc": 8642, " pel": 8643, "sex": 8644, " unle": 8645, " artif": 8646, " customers": 8647, "rock": 8648, " mold": 8649, "care": 8650, "arer": 8651, " imper": 8652, " halted": 8653, " copy": 8654, " lowering": 8655, " heck": 8656, "cience": 8657, "joe": 8658, " sche": 8659, " saff": 8660, " madeline": 8661, " acknowledged": 8662, " dele": 8663, " shifts": 8664, " spectacular": 8665, " wandering": 8666, " garb": 8667, " hates": 8668, " devon": 8669, " lucian": 8670, "conf": 8671, " erupted": 8672, " lane": 8673, " authority": 8674, " pic": 8675, "itches": 8676, " flexed": 8677, " dean": 8678, " thanked": 8679, "riley": 8680, "arian": 8681, " duncan": 8682, "xton": 8683, " bargain": 8684, " succ": 8685, " clip": 8686, " cousins": 8687, " peaceful": 8688, " beamed": 8689, "istr": 8690, " noble": 8691, " sizz": 8692, " inqu": 8693, "unks": 8694, " apparent": 8695, "quinn": 8696, "control": 8697, " initial": 8698, " snick": 8699, "umes": 8700, "harr": 8701, " taylor": 8702, " liv": 8703, " purch": 8704, " sanctuary": 8705, "thought": 8706, " keira": 8707, " urgent": 8708, " sympat": 8709, " shivering": 8710, "carson": 8711, " charles": 8712, " tat": 8713, " compassion": 8714, " emp": 8715, " staggered": 8716, " strict": 8717, " unz": 8718, "oon": 8719, " calmed": 8720, " marguerite": 8721, " reluctant": 8722, " humming": 8723, "olved": 8724, " chased": 8725, " claiming": 8726, " maddy": 8727, " temperature": 8728, " doctors": 8729, " mour": 8730, " mechan": 8731, "ables": 8732, " tingling": 8733, " flashlight": 8734, " stam": 8735, " overcome": 8736, " streaming": 8737, " independ": 8738, " restraint": 8739, " stray": 8740, " downtown": 8741, " kidnapped": 8742, " obey": 8743, "hor": 8744, " sheriff": 8745, " horizon": 8746, " europe": 8747, " comments": 8748, " unre": 8749, " fingernails": 8750, "reshold": 8751, " criminal": 8752, " essence": 8753, " celest": 8754, " seattle": 8755, " eva": 8756, " saffi": 8757, " edgard": 8758, " rue": 8759, " shitty": 8760, " possibilities": 8761, " pudd": 8762, " threshold": 8763, " stride": 8764, " described": 8765, " recon": 8766, " motorcycle": 8767, " nephew": 8768, " ridge": 8769, "ours": 8770, " butler": 8771, " abb": 8772, " alien": 8773, "aude": 8774, "leen": 8775, " lam": 8776, " crushing": 8777, " employee": 8778, " freeze": 8779, " roommate": 8780, " ages": 8781, " jennifer": 8782, " vom": 8783, " electricity": 8784, "enced": 8785, " collection": 8786, "pher": 8787, " phoenix": 8788, " nicola": 8789, " selling": 8790, "wind": 8791, " prisoner": 8792, "emily": 8793, " navy": 8794, " pulsing": 8795, " noon": 8796, "otherwise": 8797, " bacon": 8798, " bruised": 8799, "callum": 8800, " flynn": 8801, " basis": 8802, " accompan": 8803, " kimber": 8804, " birds": 8805, "atives": 8806, " ded": 8807, "dammit": 8808, " anne": 8809, "arded": 8810, " consciousness": 8811, " sly": 8812, " nuzzled": 8813, " example": 8814, "mir": 8815, " valley": 8816, " cavern": 8817, " tel": 8818, "iago": 8819, " reminds": 8820, " element": 8821, " fuss": 8822, " disgusting": 8823, " assault": 8824, " logic": 8825, "during": 8826, " conclusion": 8827, " adds": 8828, " drain": 8829, " dies": 8830, "sus": 8831, " fount": 8832, " raging": 8833, " zone": 8834, " hotter": 8835, " slack": 8836, "spoken": 8837, " guarded": 8838, " merry": 8839, " lila": 8840, " serena": 8841, " fabulous": 8842, " oldest": 8843, " terribly": 8844, " peeled": 8845, " slips": 8846, "imer": 8847, "fear": 8848, " beep": 8849, "rowing": 8850, " temptation": 8851, " peek": 8852, " rug": 8853, "ionaire": 8854, " gates": 8855, "ustered": 8856, " trial": 8857, " hailey": 8858, "oting": 8859, " overly": 8860, " designer": 8861, "bill": 8862, " complain": 8863, " annie": 8864, "fted": 8865, " license": 8866, " avery": 8867, " shelves": 8868, " longed": 8869, " bucket": 8870, " wryly": 8871, " sealed": 8872, " horm": 8873, " march": 8874, " dramatic": 8875, " sprawled": 8876, "hmm": 8877, "chal": 8878, "hem": 8879, " prow": 8880, "inity": 8881, " theater": 8882, " gulped": 8883, " welcomed": 8884, " bachel": 8885, " resort": 8886, " jeep": 8887, " shirts": 8888, " intox": 8889, " muscled": 8890, " tingle": 8891, " route": 8892, "pierre": 8893, " wiggled": 8894, "anyone": 8895, " cafe": 8896, "ooping": 8897, " contrast": 8898, " illusion": 8899, " venge": 8900, " secretly": 8901, " exposing": 8902, "ocks": 8903, " sanity": 8904, " partially": 8905, " tenderness": 8906, " sissy": 8907, " warren": 8908, " cheating": 8909, " testing": 8910, " dismissed": 8911, "iating": 8912, " ade": 8913, " sasha": 8914, " lion": 8915, " plas": 8916, "ighed": 8917, " tucking": 8918, " youth": 8919, "ulet": 8920, "race": 8921, "iments": 8922, " fisted": 8923, " activity": 8924, " granted": 8925, " dashed": 8926, "ties": 8927, "cast": 8928, "iano": 8929, " performance": 8930, "fold": 8931, " neutral": 8932, "cooper": 8933, "allie": 8934, " endelle": 8935, " exited": 8936, " echoing": 8937, " hills": 8938, "keeping": 8939, " bein": 8940, " regin": 8941, "ainsley": 8942, " captive": 8943, "unable": 8944, " unst": 8945, " cherry": 8946, " seduce": 8947, " beloved": 8948, " gargoyle": 8949, "aration": 8950, " grimace": 8951, " mistaken": 8952, " artifact": 8953, "iles": 8954, "usions": 8955, " endure": 8956, " ritual": 8957, " ambul": 8958, "lined": 8959, "ram": 8960, " soothe": 8961, " melting": 8962, " belongs": 8963, " belief": 8964, " trousers": 8965, "declan": 8966, " proposal": 8967, " fitting": 8968, " flutter": 8969, "ceded": 8970, " lan": 8971, "regard": 8972, " slung": 8973, " exhaustion": 8974, " america": 8975, "watching": 8976, "iser": 8977, " rail": 8978, "ursday": 8979, " luxury": 8980, " peering": 8981, " pron": 8982, " underground": 8983, " blows": 8984, " braid": 8985, "therefore": 8986, "urd": 8987, " puzzled": 8988, " bri": 8989, " pumped": 8990, " virt": 8991, " wealthy": 8992, " limit": 8993, " hastily": 8994, "darcy": 8995, "sof": 8996, " instructed": 8997, " downward": 8998, "ifically": 8999, " rapid": 9000, "mma": 9001, "bride": 9002, "kar": 9003, "aci": 9004, " ushe": 9005, " choosing": 9006, " technically": 9007, " fantasies": 9008, " raphael": 9009, "inkle": 9010, " woken": 9011, " groans": 9012, " soup": 9013, " watches": 9014, "mend": 9015, "acey": 9016, " stella": 9017, " amusing": 9018, " blamed": 9019, " hudd": 9020, " warily": 9021, " subst": 9022, "eyes": 9023, " lexie": 9024, "seth": 9025, " kindness": 9026, " stirring": 9027, " shouts": 9028, " ye": 9029, "garrett": 9030, "oops": 9031, "evalle": 9032, " playfully": 9033, "hest": 9034, " gained": 9035, " facts": 9036, " gross": 9037, "onsense": 9038, " nineteen": 9039, " brad": 9040, " victims": 9041, "ssa": 9042, "bias": 9043, " pursed": 9044, " visions": 9045, " pole": 9046, " lipstick": 9047, " gravel": 9048, " sinclair": 9049, " nothin": 9050, " maddox": 9051, " folding": 9052, " consp": 9053, " pine": 9054, " spells": 9055, "ishop": 9056, "handed": 9057, " rico": 9058, " teenage": 9059, " illegal": 9060, " analy": 9061, " limited": 9062, " 19": 9063, "mort": 9064, " ruff": 9065, " defensive": 9066, " till": 9067, " challenged": 9068, " doorbell": 9069, "ummy": 9070, " platform": 9071, " unaware": 9072, " mating": 9073, " brisk": 9074, " panc": 9075, " dat": 9076, " squealed": 9077, " needle": 9078, " backwards": 9079, " headboard": 9080, " dil": 9081, " violently": 9082, " bucks": 9083, "erted": 9084, "lei": 9085, "colby": 9086, " plants": 9087, " safer": 9088, "hire": 9089, " demetri": 9090, " ashley": 9091, " nykyrian": 9092, " sneaking": 9093, " penny": 9094, " rumbled": 9095, " excuses": 9096, " therefore": 9097, " lair": 9098, " yards": 9099, " giggling": 9100, "mine": 9101, "erk": 9102, " flav": 9103, "glass": 9104, " treasure": 9105, " flinch": 9106, " louis": 9107, "jamie": 9108, " addition": 9109, " sail": 9110, " sadie": 9111, " hopeless": 9112, " arching": 9113, "ups": 9114, " unfamiliar": 9115, " swiped": 9116, " impatiently": 9117, "ulsion": 9118, "imately": 9119, "rus": 9120, " todd": 9121, "chair": 9122, " pills": 9123, " punished": 9124, "ciously": 9125, " startling": 9126, "burn": 9127, "conner": 9128, " complained": 9129, "quet": 9130, " angels": 9131, " ned": 9132, " ashton": 9133, "bra": 9134, " marian": 9135, " demonstr": 9136, " lids": 9137, " atop": 9138, "big": 9139, " feral": 9140, " slaves": 9141, " cora": 9142, " ties": 9143, " failure": 9144, " debt": 9145, " crawling": 9146, " sund": 9147, " april": 9148, "unken": 9149, " plo": 9150, "walking": 9151, " confession": 9152, " roxie": 9153, " conscience": 9154, " dani": 9155, " grind": 9156, "hopefully": 9157, "break": 9158, " rim": 9159, "cor": 9160, "matt": 9161, " useful": 9162, " pavement": 9163, " inex": 9164, " agents": 9165, "dead": 9166, " distress": 9167, "kill": 9168, "front": 9169, "magn": 9170, " alcide": 9171, " intelligent": 9172, "orous": 9173, " armor": 9174, "cold": 9175, "immer": 9176, " cheekbones": 9177, "icide": 9178, " collected": 9179, " tire": 9180, " honeymoon": 9181, " sales": 9182, "omy": 9183, " sobbing": 9184, " ax": 9185, "mal": 9186, " atm": 9187, " mesmer": 9188, " outs": 9189, " linked": 9190, " yanking": 9191, " dign": 9192, "dem": 9193, " scan": 9194, " wetness": 9195, " sout": 9196, " housekeeper": 9197, " tended": 9198, "frank": 9199, " marty": 9200, "sophia": 9201, " judging": 9202, " anth": 9203, " poker": 9204, "yan": 9205, "interest": 9206, " prayer": 9207, " clam": 9208, "idal": 9209, " cocky": 9210, " thud": 9211, " pinning": 9212, "istent": 9213, "bag": 9214, " moaning": 9215, "angle": 9216, " ultimate": 9217, " swam": 9218, " michelle": 9219, " vit": 9220, " discomfort": 9221, " iona": 9222, "aneously": 9223, "piece": 9224, " unple": 9225, "gne": 9226, " destruction": 9227, " bax": 9228, "fiona": 9229, "start": 9230, " article": 9231, " dock": 9232, " plucked": 9233, " slut": 9234, "rome": 9235, " academy": 9236, " siblings": 9237, "ji": 9238, " wander": 9239, "promise": 9240, " drowning": 9241, "fine": 9242, "ignation": 9243, " straps": 9244, " swelled": 9245, " paintings": 9246, " fidget": 9247, " hunched": 9248, " uncont": 9249, " tile": 9250, " buzzing": 9251, " elaborate": 9252, "akin": 9253, " concerns": 9254, " monitor": 9255, " furiously": 9256, " wardrobe": 9257, "sophie": 9258, " appreciation": 9259, " charges": 9260, " yank": 9261, " snuck": 9262, "untless": 9263, " cassandra": 9264, " didnt": 9265, " vow": 9266, " combined": 9267, " seam": 9268, " particip": 9269, " steve": 9270, " kam": 9271, " alayna": 9272, " ryker": 9273, "occup": 9274, "ndered": 9275, "rences": 9276, " stee": 9277, " sticky": 9278, " strings": 9279, "high": 9280, " services": 9281, " holes": 9282, " nonchal": 9283, "oping": 9284, " cookie": 9285, " spy": 9286, "elope": 9287, "whit": 9288, " humiliation": 9289, " nut": 9290, " tanned": 9291, " garbage": 9292, "daisy": 9293, " toys": 9294, " withdraw": 9295, " edged": 9296, "ological": 9297, " notebook": 9298, " unmist": 9299, " solo": 9300, " nash": 9301, " receive": 9302, " cure": 9303, "prot": 9304, " bind": 9305, " steven": 9306, " coughed": 9307, " confessed": 9308, " shir": 9309, "acity": 9310, " piano": 9311, " messing": 9312, "connor": 9313, " kennedy": 9314, " mona": 9315, " dise": 9316, " gentlemen": 9317, " seet": 9318, " column": 9319, "abs": 9320, " contest": 9321, " flee": 9322, "ancee": 9323, "esty": 9324, " ambulance": 9325, " kent": 9326, " louisa": 9327, " sadi": 9328, " penis": 9329, " quarters": 9330, " veil": 9331, " growls": 9332, " frig": 9333, " soda": 9334, " oven": 9335, " nikolai": 9336, " vince": 9337, " nibbled": 9338, "want": 9339, " awak": 9340, " gasps": 9341, " bitterly": 9342, " minim": 9343, "osphere": 9344, " bodyguard": 9345, " shaken": 9346, "irsty": 9347, " examined": 9348, "alf": 9349, "immedi": 9350, " solve": 9351, " cracking": 9352, " sauce": 9353, " banged": 9354, " grav": 9355, "julie": 9356, "cash": 9357, " ku": 9358, " interrog": 9359, " delivery": 9360, " bumped": 9361, " strain": 9362, " reun": 9363, "kiss": 9364, " indiv": 9365, "ivity": 9366, " solemn": 9367, " welcoming": 9368, " fiery": 9369, " angled": 9370, " lola": 9371, " biceps": 9372, " scanning": 9373, " piled": 9374, " xavier": 9375, " daimons": 9376, " cushion": 9377, " retreated": 9378, " unner": 9379, " warehouse": 9380, " condo": 9381, "ryan": 9382, " naive": 9383, " lemon": 9384, " cautious": 9385, " delay": 9386, " heavens": 9387, " upside": 9388, " knives": 9389, "vamp": 9390, " weres": 9391, " guts": 9392, "true": 9393, " plot": 9394, " christopher": 9395, " renna": 9396, " awkwardly": 9397, " concentration": 9398, "lou": 9399, " exasperated": 9400, " deme": 9401, " ruthless": 9402, " swords": 9403, " dauntless": 9404, " pose": 9405, "bbled": 9406, " bou": 9407, " sweatshirt": 9408, " apologet": 9409, " songs": 9410, " gaping": 9411, " interrupting": 9412, " tripped": 9413, "plete": 9414, " jenna": 9415, "asked": 9416, " therapy": 9417, " mused": 9418, " papa": 9419, " competition": 9420, " intrigued": 9421, "tedly": 9422, " panted": 9423, " winding": 9424, " nov": 9425, " griff": 9426, "anah": 9427, "gwen": 9428, "ga": 9429, " alongside": 9430, " conqu": 9431, " shuddering": 9432, " seal": 9433, "shaped": 9434, " experiment": 9435, " skept": 9436, " rights": 9437, " arthur": 9438, "diego": 9439, "oldo": 9440, "immediately": 9441, " stubble": 9442, " depend": 9443, "laine": 9444, " shiftertown": 9445, " knots": 9446, " accommod": 9447, " upd": 9448, " wire": 9449, "also": 9450, " unbear": 9451, " telep": 9452, " heven": 9453, "tra": 9454, "born": 9455, " banging": 9456, " hardness": 9457, " meantime": 9458, " joseph": 9459, " pausing": 9460, " cruise": 9461, " cement": 9462, " fighter": 9463, "ijin": 9464, " puzzle": 9465, " expressions": 9466, " laws": 9467, " assignment": 9468, "john": 9469, " destiny": 9470, " jokes": 9471, " crumpled": 9472, " fills": 9473, " kneeling": 9474, "isha": 9475, " manners": 9476, "jay": 9477, " susan": 9478, "raged": 9479, " chatting": 9480, " pang": 9481, " rises": 9482, " sixty": 9483, "andora": 9484, " elise": 9485, "nett": 9486, " rhett": 9487, " aidan": 9488, " labor": 9489, " hilt": 9490, " bloss": 9491, " vibrated": 9492, " thursday": 9493, "fashion": 9494, " structure": 9495, " arrangements": 9496, " border": 9497, " shack": 9498, " photographer": 9499, " drunken": 9500, " requested": 9501, " shorter": 9502, "mph": 9503, " booker": 9504, " hauk": 9505, " snort": 9506, " mode": 9507, " brink": 9508, " armed": 9509, " recl": 9510, " activities": 9511, " dollar": 9512, " figures": 9513, " tale": 9514, " threats": 9515, " tasha": 9516, "vincent": 9517, "finn": 9518, "asms": 9519, " reports": 9520, " massage": 9521, " altogether": 9522, "reed": 9523, " rumble": 9524, " 6": 9525, " removing": 9526, " insurance": 9527, " rows": 9528, " katherine": 9529, " searing": 9530, " fishing": 9531, "mart": 9532, " nancy": 9533, "tessa": 9534, "ifted": 9535, " levels": 9536, " confess": 9537, " rejection": 9538, " depends": 9539, " texas": 9540, " samantha": 9541, " strider": 9542, " raises": 9543, "him": 9544, "length": 9545, " urgency": 9546, "pse": 9547, "liness": 9548, " couples": 9549, " reassure": 9550, " vest": 9551, "sighing": 9552, " sobbed": 9553, "neg": 9554, " peer": 9555, "bor": 9556, " cit": 9557, " repeatedly": 9558, "holly": 9559, " brenna": 9560, " salon": 9561, " slapping": 9562, " patiently": 9563, " applied": 9564, "lene": 9565, "ronin": 9566, " adults": 9567, "parent": 9568, " tongues": 9569, " speaks": 9570, " resistance": 9571, " stifled": 9572, " facility": 9573, "reet": 9574, "evan": 9575, "via": 9576, " desires": 9577, " sunny": 9578, "lie": 9579, "cloth": 9580, "anked": 9581, "herent": 9582, " butterfly": 9583, " blushing": 9584, " outer": 9585, " sage": 9586, "uffed": 9587, " denial": 9588, "istol": 9589, " convent": 9590, " underworld": 9591, "sho": 9592, "icit": 9593, " frenzy": 9594, " duties": 9595, "little": 9596, "resa": 9597, " nolan": 9598, " cheated": 9599, " specifically": 9600, " wasting": 9601, " hummed": 9602, " plastered": 9603, " agon": 9604, "gery": 9605, "warm": 9606, " depos": 9607, " troubled": 9608, " chef": 9609, " motiv": 9610, " shuffled": 9611, " leto": 9612, "hern": 9613, " bolted": 9614, "anky": 9615, " admiring": 9616, " species": 9617, " chuckles": 9618, " trau": 9619, " fiance": 9620, " rin": 9621, " obeyed": 9622, "trevor": 9623, " popping": 9624, " overnight": 9625, " dive": 9626, " unpleasant": 9627, " portra": 9628, " sunset": 9629, " pend": 9630, " veron": 9631, "iselle": 9632, " izzy": 9633, "roft": 9634, "ignoring": 9635, " lurched": 9636, "tomorrow": 9637, " legend": 9638, " volume": 9639, " padded": 9640, " francisco": 9641, "iope": 9642, " skimmed": 9643, " bug": 9644, " brunette": 9645, " cheerful": 9646, " smoking": 9647, " redhead": 9648, " regarding": 9649, " dripped": 9650, " tenderly": 9651, " minor": 9652, " throws": 9653, "nis": 9654, " powder": 9655, " sagged": 9656, "icho": 9657, " strapped": 9658, " promising": 9659, " uncontroll": 9660, " adventure": 9661, " shimmering": 9662, " dwell": 9663, " sack": 9664, " mateo": 9665, " lahn": 9666, " thoughtfully": 9667, " razor": 9668, " bewild": 9669, "brand": 9670, " faction": 9671, "erius": 9672, " levet": 9673, " supply": 9674, " freely": 9675, " goo": 9676, " severance": 9677, " suzanne": 9678, " stain": 9679, "lifting": 9680, " correctly": 9681, " fellows": 9682, " construction": 9683, " unit": 9684, " hollywood": 9685, "magnus": 9686, " areas": 9687, " cursing": 9688, " portion": 9689, " collarbone": 9690, "lily": 9691, "heat": 9692, " vowed": 9693, " respected": 9694, " vivid": 9695, "aughters": 9696, "iner": 9697, " stroll": 9698, "dor": 9699, "thomas": 9700, " throbbed": 9701, " lind": 9702, " rh": 9703, " responding": 9704, " thump": 9705, " lecture": 9706, " appealing": 9707, "mond": 9708, " nipped": 9709, " include": 9710, " returns": 9711, " encouraging": 9712, "honestly": 9713, " aiden": 9714, " congratulations": 9715, " talks": 9716, " pencil": 9717, "sen": 9718, " weary": 9719, "du": 9720, " behave": 9721, " picnic": 9722, "gown": 9723, "nesday": 9724, " practical": 9725, "might": 9726, "approp": 9727, " tests": 9728, " revol": 9729, "lady": 9730, " casting": 9731, " steadily": 9732, " bout": 9733, " drawers": 9734, " sham": 9735, " dimples": 9736, " junk": 9737, "hole": 9738, " tissue": 9739, " proven": 9740, "gio": 9741, " horn": 9742, " tracking": 9743, " obsessed": 9744, " liquor": 9745, " absorbed": 9746, "leave": 9747, " fiancee": 9748, " director": 9749, "load": 9750, " towels": 9751, "boo": 9752, " encl": 9753, "stupid": 9754, " pearl": 9755, "enn": 9756, " loft": 9757, " foul": 9758, "christian": 9759, " strangled": 9760, " absurd": 9761, " buckle": 9762, " forearms": 9763, " fingertip": 9764, "ador": 9765, "acheron": 9766, " complaining": 9767, " generally": 9768, "acious": 9769, " essent": 9770, " unwilling": 9771, "callie": 9772, "ithing": 9773, " yog": 9774, "icop": 9775, " fountain": 9776, " rubi": 9777, " blinding": 9778, " faintly": 9779, "bu": 9780, " grimly": 9781, " scrubbed": 9782, "whitney": 9783, " flashes": 9784, "poor": 9785, "rend": 9786, "alone": 9787, " weighed": 9788, " spur": 9789, " lana": 9790, " andy": 9791, "derek": 9792, "dstrom": 9793, " uncomfortably": 9794, " sunk": 9795, "assing": 9796, " glided": 9797, " ropes": 9798, " decade": 9799, " landscape": 9800, " tricks": 9801, " spade": 9802, " alexei": 9803, " vane": 9804, " passes": 9805, "fashioned": 9806, "ouched": 9807, " atmosphere": 9808, "zach": 9809, " purred": 9810, " steak": 9811, " jumps": 9812, " glued": 9813, " strides": 9814, " serge": 9815, " description": 9816, " rape": 9817, " bullets": 9818, " bathing": 9819, "shan": 9820, " corpor": 9821, "idded": 9822, " openly": 9823, " helicop": 9824, " effects": 9825, "chris": 9826, " damaged": 9827, " somethin": 9828, " agency": 9829, "ota": 9830, " kira": 9831, " daimon": 9832, " controlling": 9833, " beds": 9834, " sweating": 9835, " homework": 9836, " retrieve": 9837, " tune": 9838, " smashed": 9839, " senator": 9840, " resour": 9841, " ast": 9842, "icki": 9843, "resist": 9844, " approve": 9845, " gesturing": 9846, " parano": 9847, " courty": 9848, "eleanor": 9849, "ianna": 9850, " spa": 9851, " university": 9852, "orse": 9853, " review": 9854, "imming": 9855, " supernatural": 9856, " peyton": 9857, "amery": 9858, "domini": 9859, " squirmed": 9860, " channel": 9861, " verge": 9862, " repr": 9863, "inton": 9864, "vas": 9865, "sun": 9866, " greyson": 9867, " greedy": 9868, " junior": 9869, " thanksgiving": 9870, "mered": 9871, " squad": 9872, " individual": 9873, " average": 9874, " skirts": 9875, " vivienne": 9876, " offices": 9877, " malcolm": 9878, " skylar": 9879, "uding": 9880, " fifth": 9881, " fascination": 9882, " anguish": 9883, "gavin": 9884, " steep": 9885, " lands": 9886, " reserved": 9887, " princ": 9888, " soaking": 9889, "open": 9890, "syn": 9891, " shine": 9892, " heaving": 9893, " blat": 9894, " ay": 9895, " aug": 9896, " wrigg": 9897, "aver": 9898, " casino": 9899, " thankfully": 9900, " destination": 9901, " tiffany": 9902, "ictable": 9903, " amulet": 9904, "colo": 9905, " escal": 9906, "shield": 9907, " encountered": 9908, "uated": 9909, " lori": 9910, " survival": 9911, " damon": 9912, " stan": 9913, " medicine": 9914, " flatt": 9915, " shivers": 9916, "nadia": 9917, " anthony": 9918, " gleamed": 9919, " vengeance": 9920, " wrenched": 9921, " maxim": 9922, " omin": 9923, " writhing": 9924, " proudly": 9925, " stays": 9926, " prompt": 9927, " brains": 9928, " brood": 9929, "brina": 9930, "zader": 9931, " surveyed": 9932, " spoiled": 9933, "maid": 9934, " transl": 9935, "ppers": 9936, " sup": 9937, " unspoken": 9938, " travis": 9939, " stacy": 9940, " southern": 9941, " preoccup": 9942, " brushes": 9943, " wool": 9944, " pickup": 9945, " zacharel": 9946, " rubber": 9947, " score": 9948, " caution": 9949, " treating": 9950, " tickled": 9951, " loop": 9952, " stalking": 9953, " jolted": 9954, " ramp": 9955, " misunder": 9956, "acting": 9957, " cologne": 9958, "sell": 9959, "parents": 9960, "star": 9961, " fascinating": 9962, "graph": 9963, " coy": 9964, " scri": 9965, "charlie": 9966, " handy": 9967, "vant": 9968, "rather": 9969, " reed": 9970, " hugs": 9971, " warming": 9972, "works": 9973, " vibrating": 9974, " beings": 9975, "anity": 9976, "nathan": 9977, " shal": 9978, "mara": 9979, " mage": 9980, " suspiciously": 9981, " convul": 9982, " melo": 9983, " coincidence": 9984, " glint": 9985, " forbidden": 9986, " danika": 9987, " hesitant": 9988, " tabitha": 9989, " gina": 9990, "wolves": 9991, " amery": 9992, " nicely": 9993, " nightgown": 9994, " darting": 9995, " glee": 9996, "ications": 9997, "fif": 9998, " insec": 9999, " 10": 10000, " fluid": 10001, "pres": 10002, " jacob": 10003, "kins": 10004, " helena": 10005, " urging": 10006, "dressed": 10007, " genius": 10008, " gliding": 10009, " bedrooms": 10010, " mencheres": 10011, " walker": 10012, " recom": 10013, " threaten": 10014, " fuzzy": 10015, " attempts": 10016, " bobby": 10017, " fest": 10018, "try": 10019, " meals": 10020, " micro": 10021, " limits": 10022, "ode": 10023, " identical": 10024, "ounding": 10025, "gir": 10026, " rifle": 10027, " diamonds": 10028, " frowns": 10029, " exploring": 10030, " snarl": 10031, "adrian": 10032, " farrell": 10033, "asions": 10034, " graceful": 10035, "zer": 10036, " tunn": 10037, " muttering": 10038, "oub": 10039, " behalf": 10040, "idering": 10041, " burying": 10042, " explains": 10043, "ez": 10044, " pir": 10045, " unmistakable": 10046, "boards": 10047, "mber": 10048, " kenny": 10049, "ensing": 10050, " parting": 10051, " costume": 10052, " sympathetic": 10053, " neal": 10054, " sabin": 10055, " obed": 10056, " admission": 10057, " soothed": 10058, " indicating": 10059, " scand": 10060, " root": 10061, " leon": 10062, " twitching": 10063, " quivering": 10064, " bruise": 10065, " custody": 10066, " spirits": 10067, "bits": 10068, "around": 10069, " courtyard": 10070, " exercise": 10071, "leans": 10072, " savanna": 10073, " theran": 10074, "ustomed": 10075, " announcement": 10076, " panel": 10077, " pardon": 10078, " president": 10079, " cancer": 10080, " ellison": 10081, " cooked": 10082, " challenging": 10083, " thane": 10084, " altar": 10085, " overheard": 10086, "ounting": 10087, " phones": 10088, " observed": 10089, "sol": 10090, " hed": 10091, "dear": 10092, " jagged": 10093, " daughters": 10094, " aj": 10095, " etched": 10096, " campa": 10097, " occasional": 10098, " greaves": 10099, " surprises": 10100, " helpful": 10101, "truth": 10102, " storage": 10103, " accomplish": 10104, "aved": 10105, " jocelyn": 10106, " orleans": 10107, " taxi": 10108, " pulsed": 10109, " prime": 10110, " goddamned": 10111, " anticipated": 10112, " extraord": 10113, " jessica": 10114, " unison": 10115, " admin": 10116, " secured": 10117, " strategy": 10118, "earl": 10119, "outside": 10120, "sided": 10121, "forget": 10122, " mant": 10123, " shaped": 10124, " folder": 10125, "ndering": 10126, " flicking": 10127, " certainty": 10128, " announ": 10129, " nestled": 10130, "doll": 10131, "ikes": 10132, "renched": 10133, " speechless": 10134, "ros": 10135, " gardens": 10136, "alph": 10137, " swallowing": 10138, " moisture": 10139, " yawned": 10140, " billionaire": 10141, " cupc": 10142, "smo": 10143, " whistled": 10144, "according": 10145, " cade": 10146, "nix": 10147, " hadley": 10148, " detect": 10149, " summoned": 10150, " foster": 10151, " eyelashes": 10152, " impulse": 10153, " scot": 10154, " plea": 10155, " glide": 10156, "quick": 10157, " owners": 10158, " softer": 10159, " mildly": 10160, " sapp": 10161, " kaia": 10162, " theirs": 10163, "enc": 10164, "wife": 10165, " obst": 10166, "carly": 10167, " roke": 10168, " inched": 10169, " dawned": 10170, " logical": 10171, " feast": 10172, "derer": 10173, " escorted": 10174, " thong": 10175, " barre": 10176, " smother": 10177, "stretched": 10178, "laugh": 10179, " calder": 10180, " splashed": 10181, " snatch": 10182, " handling": 10183, " wist": 10184, "andy": 10185, " ladder": 10186, " becomes": 10187, "cest": 10188, "apor": 10189, "tara": 10190, " institute": 10191, "encer": 10192, " quentin": 10193, "rolling": 10194, " scenario": 10195, "arming": 10196, "definitely": 10197, " sarcastic": 10198, "style": 10199, "orney": 10200, "aunt": 10201, "tiger": 10202, " ashlyn": 10203, " index": 10204, " fumbled": 10205, " mah": 10206, "whoever": 10207, " rubs": 10208, " device": 10209, "rific": 10210, " elsewhere": 10211, " conj": 10212, " melissa": 10213, " maris": 10214, " rejected": 10215, " buckled": 10216, " fans": 10217, "avel": 10218, " bishop": 10219, " jesse": 10220, " pled": 10221, " defeated": 10222, " fights": 10223, " uttered": 10224, " completed": 10225, " blurred": 10226, "bertie": 10227, " semi": 10228, " texts": 10229, " butterflies": 10230, " satisfying": 10231, " monsters": 10232, " sorce": 10233, " brynne": 10234, " granite": 10235, " attorney": 10236, " lass": 10237, " casey": 10238, " multiple": 10239, " swat": 10240, " waters": 10241, " whipping": 10242, " significant": 10243, " disturbed": 10244, " russian": 10245, " bray": 10246, "rory": 10247, " thus": 10248, " compar": 10249, " drives": 10250, " fet": 10251, "oubtedly": 10252, " kink": 10253, " rehe": 10254, " represent": 10255, " weakly": 10256, " developed": 10257, " amazement": 10258, " wednesday": 10259, " aven": 10260, " owns": 10261, " troy": 10262, " tangle": 10263, " reporter": 10264, " sophist": 10265, "soft": 10266, " quen": 10267, " scarred": 10268, " mitch": 10269, " screwing": 10270, " bitterness": 10271, " demeanor": 10272, " failing": 10273, " comprehe": 10274, " accomplished": 10275, " sparked": 10276, "iah": 10277, " wives": 10278, " inapprop": 10279, " beautifully": 10280, " babys": 10281, " juliana": 10282, "kendall": 10283, " busted": 10284, " appetite": 10285, " dangerously": 10286, " stumble": 10287, " mutual": 10288, " denver": 10289, "sarah": 10290, " satisfy": 10291, " venom": 10292, " smoothing": 10293, " exotic": 10294, " erik": 10295, "ryder": 10296, "wayne": 10297, "marcus": 10298, "opard": 10299, " aggressive": 10300, "turned": 10301, " sipping": 10302, " savoring": 10303, "upt": 10304, " sparkle": 10305, " museum": 10306, " abd": 10307, " layers": 10308, " swaying": 10309, " harry": 10310, " spider": 10311, " bennett": 10312, "iall": 10313, " qhuinn": 10314, " monit": 10315, " calming": 10316, "rings": 10317, "hension": 10318, " mutters": 10319, " roam": 10320, " keen": 10321, "urious": 10322, "iation": 10323, " aust": 10324, " sarcastically": 10325, "unching": 10326, " beef": 10327, " scheduled": 10328, " scient": 10329, " youngest": 10330, " experiencing": 10331, " fortun": 10332, " flatly": 10333, "press": 10334, " courtesy": 10335, "ifferent": 10336, "ati": 10337, " py": 10338, "quarters": 10339, "hank": 10340, " flickering": 10341, " filthy": 10342, "agan": 10343, " dizz": 10344, "satisf": 10345, " blessing": 10346, " colorful": 10347, " tilting": 10348, " presented": 10349, " figuring": 10350, " tingled": 10351, " distracting": 10352, "force": 10353, " tires": 10354, "hector": 10355, " fortress": 10356, "xon": 10357, "keely": 10358, "apt": 10359, " adored": 10360, "crow": 10361, " scur": 10362, " cul": 10363, " gag": 10364, "andrea": 10365, " crotch": 10366, " gap": 10367, " blasted": 10368, " wield": 10369, "richard": 10370, " endured": 10371, " grasping": 10372, " positions": 10373, " bid": 10374, " ribbon": 10375, " bait": 10376, " vamps": 10377, "gent": 10378, " follows": 10379, " entertainment": 10380, " compound": 10381, " daphne": 10382, " tag": 10383, " central": 10384, " disconn": 10385, " imprison": 10386, " discreet": 10387, " jude": 10388, " sabine": 10389, " resigned": 10390, " escaping": 10391, " manic": 10392, " puck": 10393, " backside": 10394, " cheat": 10395, " achieve": 10396, "igan": 10397, " impatience": 10398, " cocktail": 10399, " asce": 10400, " education": 10401, " admitting": 10402, " smold": 10403, " screec": 10404, "fig": 10405, "unging": 10406, " mayor": 10407, " kyrian": 10408, " amun": 10409, " flattened": 10410, " cling": 10411, " messenger": 10412, " pluck": 10413, " silken": 10414, " saddle": 10415, " glam": 10416, " murderer": 10417, " tammy": 10418, " griffin": 10419, " blessed": 10420, "cross": 10421, " carrie": 10422, " barrel": 10423, "uted": 10424, " disease": 10425, "icia": 10426, "zzie": 10427, " lovemaking": 10428, " records": 10429, " campaign": 10430, " earlo": 10431, " launch": 10432, " sandals": 10433, " suited": 10434, " internal": 10435, " glove": 10436, "grabbing": 10437, "mbled": 10438, " poking": 10439, " casc": 10440, " scarce": 10441, " cats": 10442, " tripp": 10443, " plun": 10444, "given": 10445, " tool": 10446, " battered": 10447, " disd": 10448, "udged": 10449, "soever": 10450, " breathtaking": 10451, " peak": 10452, "sara": 10453, " magazines": 10454, " ace": 10455, " intelligence": 10456, " spi": 10457, "anya": 10458, "francesca": 10459, "dream": 10460, " hairs": 10461, " punching": 10462, " alike": 10463, " speaker": 10464, " transform": 10465, " dred": 10466, " duff": 10467, "gold": 10468, " paled": 10469, " rippled": 10470, " cyn": 10471, " succeeded": 10472, " improve": 10473, " visibly": 10474, " uncertainty": 10475, " tools": 10476, " tut": 10477, " snaps": 10478, " outstretched": 10479, " humanity": 10480, "psy": 10481, " cidra": 10482, " seduction": 10483, " necessarily": 10484, " slur": 10485, " wince": 10486, " marie": 10487, " olive": 10488, "ddy": 10489, " abuse": 10490, " harshly": 10491, " briefs": 10492, " noting": 10493, " pancakes": 10494, " oxy": 10495, " prem": 10496, " fare": 10497, " forgiveness": 10498, " denise": 10499, " jewell": 10500, " lizzie": 10501, " hitched": 10502, "athing": 10503, "brown": 10504, " claudia": 10505, "miranda": 10506, " caine": 10507, " cozy": 10508, "already": 10509, " plays": 10510, " creative": 10511, " flopped": 10512, " bleak": 10513, " believes": 10514, " acceptance": 10515, " whatsoever": 10516, "considering": 10517, " sends": 10518, "necess": 10519, " helicopter": 10520, "onent": 10521, "aulted": 10522, "fri": 10523, " grady": 10524, " negative": 10525, " creeping": 10526, " occasions": 10527, " skit": 10528, " brighter": 10529, " tunnels": 10530, " bian": 10531, " matthias": 10532, " proceed": 10533, " hesitantly": 10534, " unbuttoned": 10535, " fluttering": 10536, "otes": 10537, " nonsense": 10538, " giggles": 10539, " concept": 10540, " wendy": 10541, " golf": 10542, " imogen": 10543, "somewhere": 10544, " knob": 10545, " bubbles": 10546, " reapp": 10547, "mbl": 10548, "inate": 10549, " regain": 10550, " accusation": 10551, " danie": 10552, " lucah": 10553, " ath": 10554, " narrowing": 10555, " flag": 10556, " tastes": 10557, " suggesting": 10558, " uncon": 10559, " heap": 10560, " undead": 10561, " zarek": 10562, " standard": 10563, "certain": 10564, " windshield": 10565, " predator": 10566, " chained": 10567, " holt": 10568, " bis": 10569, " juliet": 10570, " dont": 10571, " mouthed": 10572, " collapse": 10573, "idents": 10574, "lished": 10575, " coke": 10576, " 7": 10577, " beats": 10578, "forming": 10579, " sketch": 10580, " lining": 10581, " deaf": 10582, " unin": 10583, "cting": 10584, " bells": 10585, " greg": 10586, " shoots": 10587, " strongly": 10588, " curly": 10589, " mol": 10590, "ahara": 10591, " claude": 10592, "georgie": 10593, " appearing": 10594, " proving": 10595, " sequ": 10596, " mighty": 10597, " linger": 10598, " superior": 10599, " legit": 10600, "bab": 10601, " walter": 10602, " pendant": 10603, " lords": 10604, " sexually": 10605, " midst": 10606, " alle": 10607, "complete": 10608, "fortunate": 10609, " acquaint": 10610, " soften": 10611, " relatively": 10612, " whistle": 10613, " item": 10614, " undoubtedly": 10615, " easing": 10616, " dipping": 10617, "rated": 10618, " august": 10619, "arring": 10620, " suicide": 10621, " sariana": 10622, " sum": 10623, " accustomed": 10624, " concert": 10625, " stuart": 10626, "ampoo": 10627, "uable": 10628, " grit": 10629, "women": 10630, " jasper": 10631, " deuce": 10632, " mexico": 10633, " scree": 10634, " composure": 10635, " liber": 10636, " glossy": 10637, " auction": 10638, " fen": 10639, " deaths": 10640, "comp": 10641, " disdain": 10642, " sauntered": 10643, " reckless": 10644, "pleasure": 10645, " kitty": 10646, " coated": 10647, " brandy": 10648, "aston": 10649, "heather": 10650, " allie": 10651, " elec": 10652, " aspect": 10653, "glancing": 10654, "ripp": 10655, " uncl": 10656, " eerie": 10657, " zayne": 10658, "megan": 10659, " brist": 10660, "hur": 10661, "stra": 10662, "athom": 10663, " disturb": 10664, " lec": 10665, " pilot": 10666, " bachelor": 10667, " destroying": 10668, "iac": 10669, "strong": 10670, " dominique": 10671, " tradition": 10672, " reen": 10673, "elie": 10674, "aleb": 10675, " india": 10676, "reille": 10677, " sult": 10678, " confron": 10679, "has": 10680, " stores": 10681, " jung": 10682, " backup": 10683, " wheels": 10684, " splin": 10685, " math": 10686, " lave": 10687, "check": 10688, "henry": 10689, " sparkled": 10690, " examine": 10691, " vote": 10692, " rag": 10693, " scrut": 10694, "aggers": 10695, "maggie": 10696, " cham": 10697, " gracie": 10698, "zack": 10699, " widening": 10700, "brush": 10701, " assigned": 10702, " hardest": 10703, " privile": 10704, " vod": 10705, " gay": 10706, " fitted": 10707, " joint": 10708, "anes": 10709, "gom": 10710, "owering": 10711, "inde": 10712, " countless": 10713, " shops": 10714, "anks": 10715, " groaning": 10716, " chad": 10717, "alb": 10718, " subd": 10719, " cooler": 10720, "ievous": 10721, "oused": 10722, " payment": 10723, " sticks": 10724, " bluff": 10725, " cheerle": 10726, " plopped": 10727, " agenda": 10728, " bundle": 10729, "veling": 10730, " muted": 10731, " practiced": 10732, " shampoo": 10733, " marco": 10734, " tickets": 10735, " commented": 10736, " coldly": 10737, "iches": 10738, "iza": 10739, " accompanied": 10740, "sn": 10741, " laylah": 10742, " patrick": 10743, " stinging": 10744, " print": 10745, "iddy": 10746, " outline": 10747, " fires": 10748, " forces": 10749, " leaf": 10750, " cant": 10751, " mounted": 10752, " undone": 10753, " surgery": 10754, " vodka": 10755, "jamas": 10756, "indy": 10757, " uses": 10758, " posture": 10759, "lecting": 10760, "ishes": 10761, " vine": 10762, " gary": 10763, " steph": 10764, " ghosts": 10765, "phil": 10766, " cheyenne": 10767, " tobias": 10768, "talon": 10769, " remorse": 10770, "gone": 10771, " managing": 10772, "bird": 10773, "enough": 10774, " radiated": 10775, " pistol": 10776, " primal": 10777, " virgil": 10778, "many": 10779, " chewing": 10780, " handc": 10781, "squ": 10782, " grows": 10783, " operation": 10784, "sued": 10785, "hatt": 10786, "iel": 10787, "sole": 10788, " jogged": 10789, " parad": 10790, " compare": 10791, " permanently": 10792, " disguise": 10793, " gp": 10794, "...": 10795, " feathers": 10796, " exasperation": 10797, " intensified": 10798, " laura": 10799, "meredith": 10800, "hum": 10801, " accusing": 10802, " bushes": 10803, " bum": 10804, " unfortunate": 10805, " leaders": 10806, " foundation": 10807, " plump": 10808, " apologized": 10809, " gulp": 10810, " cushions": 10811, " players": 10812, " dunge": 10813, " profound": 10814, " aristo": 10815, " household": 10816, " unlikely": 10817, " hostess": 10818, " tas": 10819, " notion": 10820, " quivered": 10821, " identify": 10822, " addict": 10823, " simult": 10824, " dazz": 10825, " chilled": 10826, " sust": 10827, " freshly": 10828, " neared": 10829, " voc": 10830, "tight": 10831, " partly": 10832, " reported": 10833, "mostly": 10834, " organization": 10835, " werewolves": 10836, " immense": 10837, " shh": 10838, " situations": 10839, " repair": 10840, " linen": 10841, "aspar": 10842, " pointedly": 10843, "dropping": 10844, " streak": 10845, " political": 10846, "wren": 10847, "ds": 10848, " kh": 10849, " vale": 10850, "worthy": 10851, " traditional": 10852, " tolerate": 10853, "iar": 10854, " cad": 10855, " apo": 10856, "olivia": 10857, "caleb": 10858, " simi": 10859, " entertaining": 10860, " grazed": 10861, " menacing": 10862, " ignor": 10863, " navig": 10864, " debbie": 10865, " roads": 10866, " ker": 10867, " atlant": 10868, " receiving": 10869, "vey": 10870, " complaint": 10871, " unfair": 10872, " snagged": 10873, " stiffly": 10874, " stacked": 10875, " ancest": 10876, " purchased": 10877, " brianna": 10878, "ctav": 10879, " hormones": 10880, "rot": 10881, " deserted": 10882, " officers": 10883, " phrase": 10884, " somber": 10885, "ciating": 10886, " paraly": 10887, " growling": 10888, "atedly": 10889, " bastards": 10890, "amelia": 10891, " eman": 10892, " receiver": 10893, " epis": 10894, " apron": 10895, " carolyn": 10896, " ranon": 10897, " infer": 10898, " absent": 10899, " heady": 10900, " headlights": 10901, "essen": 10902, "albret": 10903, " grandparents": 10904, " chemist": 10905, " quirked": 10906, " stocking": 10907, " admiration": 10908, " incap": 10909, "minded": 10910, " guiding": 10911, " rearview": 10912, " baff": 10913, "estyle": 10914, "usal": 10915, "dani": 10916, "funny": 10917, " sierra": 10918, "looked": 10919, "wra": 10920, " huddled": 10921, "relief": 10922, " convenient": 10923, " acute": 10924, " confusing": 10925, " photographs": 10926, " kade": 10927, " unease": 10928, " talented": 10929, " straddling": 10930, "het": 10931, " terrace": 10932, " leash": 10933, " oxygen": 10934, "tos": 10935, "elliot": 10936, "hat": 10937, " nich": 10938, " harlow": 10939, " pupils": 10940, " eh": 10941, " celebration": 10942, " savor": 10943, "katie": 10944, "eleer": 10945, " crook": 10946, " horny": 10947, " graduated": 10948, " shields": 10949, " taunting": 10950, "anse": 10951, " reese": 10952, "isaac": 10953, "hudson": 10954, " connections": 10955, "tion": 10956, " freck": 10957, "ials": 10958, " fau": 10959, " earlobe": 10960, "imag": 10961, "ission": 10962, " lilly": 10963, " christina": 10964, "amedes": 10965, " faltered": 10966, " apply": 10967, " expectations": 10968, "mblance": 10969, " hack": 10970, " tremor": 10971, " unset": 10972, " blazed": 10973, " drowned": 10974, " frankly": 10975, " encouraged": 10976, " paradise": 10977, " sneered": 10978, " fred": 10979, " summon": 10980, " swelling": 10981, " friction": 10982, " goodnight": 10983, " unread": 10984, "onym": 10985, " carn": 10986, " sheath": 10987, " stables": 10988, " intact": 10989, " shaved": 10990, "mack": 10991, " fulfill": 10992, " perspective": 10993, "julia": 10994, " preoccupied": 10995, " swive": 10996, " discarded": 10997, " worship": 10998, " zeus": 10999, " knead": 11000, "opening": 11001, " chir": 11002, " zip": 11003, "brandon": 11004, " confl": 11005, " doorstep": 11006, " worlds": 11007, " stressed": 11008, " squared": 11009, " jut": 11010, "imir": 11011, "leaving": 11012, " pinch": 11013, "stru": 11014, "iantly": 11015, "ewed": 11016, " france": 11017, " immune": 11018, " purchase": 11019, " pajamas": 11020, " tested": 11021, " lifestyle": 11022, "annie": 11023, "jew": 11024, " pry": 11025, " slowing": 11026, " evident": 11027, " fidd": 11028, " les": 11029, " hammer": 11030, " unnecess": 11031, " stripping": 11032, "brian": 11033, "oebe": 11034, "tis": 11035, "othea": 11036, "sinclair": 11037, " bounce": 11038, " curving": 11039, " intending": 11040, " lingerie": 11041, " glistening": 11042, "ipes": 11043, " vulnerability": 11044, "corn": 11045, " hott": 11046, " italy": 11047, " arriving": 11048, " repeating": 11049, " screeched": 11050, " talkin": 11051, " lacy": 11052, "phy": 11053, " inappropriate": 11054, " irresist": 11055, " squirm": 11056, " bould": 11057, "nin": 11058, " barry": 11059, "laughing": 11060, "tony": 11061, " angus": 11062, " rumm": 11063, "tale": 11064, "dging": 11065, " punct": 11066, " flet": 11067, "naturally": 11068, "happy": 11069, "owning": 11070, " dignity": 11071, "dened": 11072, " sabrina": 11073, "dante": 11074, "ynn": 11075, " kaeleer": 11076, " tentatively": 11077, "anca": 11078, " forms": 11079, " erase": 11080, " workout": 11081, " dict": 11082, " expanse": 11083, " karen": 11084, "brook": 11085, " roots": 11086, " cuffs": 11087, " isol": 11088, " float": 11089, "mallory": 11090, " breathlessly": 11091, " intensely": 11092, " az": 11093, " assess": 11094, " rosie": 11095, " fling": 11096, " defined": 11097, " fee": 11098, " alb": 11099, " alarmed": 11100, " needy": 11101, " blaze": 11102, "kyle": 11103, " cait": 11104, " clawed": 11105, " lever": 11106, " shattering": 11107, " bathed": 11108, " scraping": 11109, " stumbling": 11110, "yep": 11111, "rons": 11112, "oid": 11113, " fraction": 11114, " concentrating": 11115, "umbed": 11116, "dan": 11117, " jett": 11118, "lauren": 11119, "gemma": 11120, "utes": 11121, " clutch": 11122, " comforter": 11123, " mush": 11124, " devastating": 11125, " interests": 11126, " marsh": 11127, "skyla": 11128, " signature": 11129, " fixing": 11130, " attended": 11131, "steady": 11132, "vations": 11133, " weekends": 11134, " creep": 11135, "cases": 11136, " vows": 11137, "umer": 11138, " threaded": 11139, "brooke": 11140, " eli": 11141, "kaldar": 11142, " comparison": 11143, "daughter": 11144, "skin": 11145, " badass": 11146, " wears": 11147, " traitor": 11148, " ronan": 11149, "garet": 11150, " exclusive": 11151, " obsession": 11152, " reflex": 11153, " crest": 11154, " perse": 11155, " actress": 11156, " jungle": 11157, " smelling": 11158, " ralph": 11159, " braz": 11160, " riot": 11161, " denim": 11162, " limous": 11163, " gust": 11164, " prett": 11165, " syd": 11166, " champion": 11167, "tex": 11168, "diana": 11169, " santiago": 11170, " environ": 11171, " peeking": 11172, " conser": 11173, " 8": 11174, " bleed": 11175, " retire": 11176, " raped": 11177, " contacted": 11178, " haid": 11179, "reyes": 11180, " intric": 11181, " kills": 11182, " schol": 11183, " doug": 11184, "inch": 11185, " peep": 11186, " giddy": 11187, " intimidating": 11188, " residence": 11189, " displayed": 11190, " rusty": 11191, "beside": 11192, " dissip": 11193, "maker": 11194, "lines": 11195, " chimed": 11196, " splayed": 11197, " thorn": 11198, " tart": 11199, " stepfather": 11200, " vibrant": 11201, " visual": 11202, " insanity": 11203, " lys": 11204, " loosen": 11205, "cerity": 11206, " hav": 11207, " poised": 11208, " arrogance": 11209, "slee": 11210, "rella": 11211, "panic": 11212, " reeling": 11213, " whirl": 11214, " earrings": 11215, " longest": 11216, " envy": 11217, " tumbling": 11218, " binding": 11219, " agitated": 11220, " canvas": 11221, " roaring": 11222, "elcome": 11223, " fila": 11224, "augh": 11225, "shay": 11226, " fastened": 11227, " presents": 11228, "rant": 11229, " chemistry": 11230, " fragr": 11231, " cove": 11232, " lavender": 11233, " slither": 11234, " acid": 11235, " latched": 11236, " ruining": 11237, "nders": 11238, " conver": 11239, "uster": 11240, "sally": 11241, " ceased": 11242, "unning": 11243, " grips": 11244, " scotch": 11245, "summer": 11246, " toby": 11247, "trey": 11248, "gods": 11249, " rane": 11250, " fluffy": 11251, "ogue": 11252, " overt": 11253, " hilar": 11254, " welled": 11255, " customer": 11256, "ordon": 11257, " nickname": 11258, " contempt": 11259, " rou": 11260, " hushed": 11261, " strawberry": 11262, " intoxicating": 11263, "oles": 11264, "tim": 11265, " rabid": 11266, " didn": 11267, "inent": 11268, " irritating": 11269, " oversized": 11270, " potatoes": 11271, "det": 11272, " stench": 11273, " lorelei": 11274, " tess": 11275, " kell": 11276, " jagr": 11277, " glazed": 11278, " china": 11279, " sport": 11280, " extent": 11281, " visitors": 11282, " calliope": 11283, " receptionist": 11284, " classic": 11285, " oo": 11286, " heating": 11287, " dimension": 11288, " inspect": 11289, " reins": 11290, " headquarters": 11291, "nan": 11292, " rogan": 11293, " cimil": 11294, "sad": 11295, " commerc": 11296, " fleeting": 11297, " infect": 11298, "class": 11299, " daggers": 11300, " resumed": 11301, " loan": 11302, " attic": 11303, " nurses": 11304, " patting": 11305, "iara": 11306, " coco": 11307, " science": 11308, " recognition": 11309, "breaking": 11310, " hunted": 11311, " lure": 11312, " plush": 11313, " vein": 11314, " invent": 11315, " pepper": 11316, "believe": 11317, " snug": 11318, " merl": 11319, " scenes": 11320, "jenny": 11321, "niall": 11322, " walt": 11323, "isure": 11324, " awakened": 11325, " twinge": 11326, "tab": 11327, " combat": 11328, " condoms": 11329, "grandma": 11330, " effective": 11331, " circular": 11332, " shadowed": 11333, "pen": 11334, " jaxon": 11335, "hele": 11336, "ancroft": 11337, " adopted": 11338, " award": 11339, "acking": 11340, " assistance": 11341, " quickened": 11342, " penelope": 11343, " shirleen": 11344, " viggo": 11345, " unreadable": 11346, " gaw": 11347, " dub": 11348, " squat": 11349, "abbed": 11350, "jer": 11351, "oked": 11352, "stepping": 11353, " boston": 11354, " tube": 11355, "dollar": 11356, "hearing": 11357, "lana": 11358, " duval": 11359, " chap": 11360, " glittered": 11361, " national": 11362, "rise": 11363, " telephone": 11364, "vivian": 11365, " void": 11366, " finest": 11367, " eld": 11368, "angeline": 11369, " examining": 11370, " calend": 11371, " cunt": 11372, " permit": 11373, "ulty": 11374, "fell": 11375, " sect": 11376, "aderin": 11377, " georgia": 11378, " stairwell": 11379, " environment": 11380, " attacking": 11381, "jane": 11382, " document": 11383, " diver": 11384, " manor": 11385, " anderson": 11386, " cate": 11387, "oma": 11388, " increase": 11389, " ruled": 11390, " cells": 11391, " kneel": 11392, " conspir": 11393, "bare": 11394, "woman": 11395, " someplace": 11396, "icity": 11397, " chunk": 11398, " ful": 11399, " lilith": 11400, " butch": 11401, " strateg": 11402, " groceries": 11403, "instantly": 11404, "exc": 11405, " elderly": 11406, " unbearable": 11407, " deepest": 11408, "erin": 11409, " brielle": 11410, " apologetic": 11411, "chievous": 11412, " earnest": 11413, "pushing": 11414, "oses": 11415, " yoga": 11416, "amping": 11417, " squeaked": 11418, " highest": 11419, " tink": 11420, " truman": 11421, "term": 11422, " addressed": 11423, " ench": 11424, " hom": 11425, " petite": 11426, " pops": 11427, " yup": 11428, " apologies": 11429, " scratching": 11430, " battles": 11431, " limousine": 11432, "surreal": 11433, "spike": 11434, " sentiment": 11435, " sincerity": 11436, "rup": 11437, " peel": 11438, " insistent": 11439, " defenses": 11440, " optim": 11441, " hammering": 11442, " relentless": 11443, " santa": 11444, "drew": 11445, " jael": 11446, " forgiven": 11447, " bursting": 11448, " prost": 11449, " leisure": 11450, " clerk": 11451, " throb": 11452, " lurking": 11453, " valuable": 11454, " mirrors": 11455, " cubs": 11456, "relyn": 11457, " verbal": 11458, " plum": 11459, " cracks": 11460, " pins": 11461, "guess": 11462, " mortimer": 11463, "urg": 11464, "astyan": 11465, " twirled": 11466, " termin": 11467, " types": 11468, " straddled": 11469, " doubled": 11470, " fits": 11471, " sophisticated": 11472, " commission": 11473, " blay": 11474, "knox": 11475, " kaldar": 11476, " aub": 11477, "inning": 11478, " streamed": 11479, " woo": 11480, " mischievous": 11481, " neil": 11482, " sandy": 11483, " simultaneously": 11484, " towering": 11485, " creamy": 11486, " traged": 11487, " fairies": 11488, " dus": 11489, "poss": 11490, "tabitha": 11491, " teresa": 11492, " healer": 11493, " undid": 11494, " twe": 11495, " unders": 11496, "pred": 11497, " accord": 11498, " resources": 11499, "george": 11500, "worse": 11501, " tina": 11502, " sapphire": 11503, "size": 11504, " yuri": 11505, " filed": 11506, " sweetest": 11507, " retrieved": 11508, " straighten": 11509, "gression": 11510, " commanding": 11511, "naked": 11512, " curses": 11513, "kelly": 11514, "carter": 11515, " terreille": 11516, " gin": 11517, " conflict": 11518, " tracked": 11519, " outcome": 11520, " rut": 11521, " adrien": 11522, " sherry": 11523, " bryan": 11524, " sergio": 11525, "nykyrian": 11526, " rect": 11527, " haunt": 11528, " chatter": 11529, "mob": 11530, "uished": 11531, "peter": 11532, " suspicions": 11533, "sher": 11534, "aiden": 11535, " angelica": 11536, " originally": 11537, " groups": 11538, " virginity": 11539, " springs": 11540, " ironic": 11541, " regrets": 11542, " cradling": 11543, "lots": 11544, "theless": 11545, " spiked": 11546, " uneas": 11547, " relig": 11548, " irish": 11549, " bure": 11550, " buddies": 11551, " burger": 11552, " douche": 11553, " concluded": 11554, "owen": 11555, " gail": 11556, "kers": 11557, " vital": 11558, "rin": 11559, "onos": 11560, "tierney": 11561, "ctavia": 11562, " antique": 11563, " pelvis": 11564, " inwardly": 11565, " massaging": 11566, " transformed": 11567, " boobs": 11568, " alternative": 11569, " luxurious": 11570, " seeped": 11571, " united": 11572, " rental": 11573, " eighty": 11574, " ditch": 11575, "ya": 11576, " conrad": 11577, " lysander": 11578, " loki": 11579, " proceeded": 11580, " irresistible": 11581, " harmless": 11582, "ggage": 11583, " puddle": 11584, "help": 11585, " seventy": 11586, " oath": 11587, " constantijin": 11588, "eddie": 11589, "prest": 11590, " risked": 11591, " bodice": 11592, " dancers": 11593, "imeter": 11594, "show": 11595, " transport": 11596, " clubs": 11597, " bottoms": 11598, " mates": 11599, " citiz": 11600, " portrait": 11601, " chis": 11602, " errand": 11603, " jimmy": 11604, " ale": 11605, "abel": 11606, " kaly": 11607, " kalyna": 11608, " firing": 11609, " tentative": 11610, "rawn": 11611, " bracing": 11612, "urb": 11613, " pandora": 11614, "ruct": 11615, " luca": 11616, "paris": 11617, "kennedy": 11618, "azire": 11619, " devoted": 11620, " niece": 11621, " scrap": 11622, " luggage": 11623, " conviction": 11624, " produced": 11625, " label": 11626, " los": 11627, " monty": 11628, "park": 11629, " blah": 11630, " koldo": 11631, " clinic": 11632, " mouthful": 11633, " downright": 11634, " stim": 11635, " priority": 11636, " suffoc": 11637, " scowling": 11638, " vomit": 11639, "madison": 11640, "stage": 11641, " ri": 11642, "empt": 11643, " shotgun": 11644, " cory": 11645, "preston": 11646, " chassie": 11647, " rydstrom": 11648, "salind": 11649, " gladly": 11650, " diet": 11651, " script": 11652, "orient": 11653, " comprehend": 11654, " tendr": 11655, " bitten": 11656, " compelled": 11657, " pete": 11658, " divorced": 11659, " striding": 11660, " benefits": 11661, "zzling": 11662, " insulted": 11663, " outright": 11664, "pretty": 11665, " acceptable": 11666, " smar": 11667, " capital": 11668, " ski": 11669, " limb": 11670, "cee": 11671, " cane": 11672, " unde": 11673, " steaming": 11674, " vase": 11675, " inherit": 11676, " accounts": 11677, " data": 11678, " astr": 11679, " twent": 11680, " spanish": 11681, "hattan": 11682, " horns": 11683, "sienna": 11684, " whoo": 11685, " advert": 11686, " interfe": 11687, " purposely": 11688, " hyper": 11689, " exhib": 11690, " kidn": 11691, " bunk": 11692, " gh": 11693, " tattooed": 11694, " spart": 11695, " newest": 11696, " dur": 11697, "ruly": 11698, " bucked": 11699, " mainly": 11700, " lav": 11701, " restroom": 11702, " measured": 11703, "ruciating": 11704, " contrad": 11705, " rescued": 11706, "inkles": 11707, " briefcase": 11708, " bland": 11709, " teddy": 11710, "rison": 11711, "rik": 11712, " hust": 11713, " bears": 11714, " slippery": 11715, "must": 11716, " indicate": 11717, " flustered": 11718, " calves": 11719, " unbelievable": 11720, " audible": 11721, " chuckling": 11722, " looming": 11723, " fbi": 11724, " engulf": 11725, " fries": 11726, "nina": 11727, " levi": 11728, " beaming": 11729, " aback": 11730, " swig": 11731, " flour": 11732, "chool": 11733, " reverse": 11734, " innocently": 11735, " additional": 11736, " british": 11737, "gon": 11738, " paragon": 11739, " ridiculously": 11740, " remotely": 11741, "finger": 11742, " rounds": 11743, "ja": 11744, "amanda": 11745, "ablo": 11746, " kor": 11747, " delaney": 11748, " union": 11749, " confrontation": 11750, "letting": 11751, "dist": 11752, " dent": 11753, "cedes": 11754, " vibe": 11755, " agreeing": 11756, " inquis": 11757, " boundaries": 11758, " suppressed": 11759, " petals": 11760, " ominous": 11761, " advance": 11762, "ugged": 11763, " borrowed": 11764, " brass": 11765, " assassin": 11766, " rodeo": 11767, " unexpectedly": 11768, "hour": 11769, " expose": 11770, " excitedly": 11771, " wisdom": 11772, " reactions": 11773, " byron": 11774, " stink": 11775, " corpse": 11776, " antonio": 11777, "rice": 11778, "itri": 11779, " annabelle": 11780, " needles": 11781, " trips": 11782, " twists": 11783, " revelation": 11784, " locate": 11785, " malik": 11786, " knotted": 11787, " angeles": 11788, " supper": 11789, " villa": 11790, " manhattan": 11791, "cover": 11792, " vicki": 11793, " streaked": 11794, "ician": 11795, " orgasms": 11796, "whenever": 11797, " communication": 11798, " establish": 11799, " scrape": 11800, " heavier": 11801, " flooding": 11802, "story": 11803, "calvin": 11804, " acceler": 11805, " disagree": 11806, " sue": 11807, " excruciating": 11808, " helplessly": 11809, " troubles": 11810, " pupp": 11811, " effectively": 11812, " rumbling": 11813, "ista": 11814, "leo": 11815, "ikh": 11816, " cezar": 11817, " pointless": 11818, " reverber": 11819, " blindly": 11820, " fields": 11821, " winks": 11822, "ov": 11823, "irable": 11824, " widow": 11825, " abbess": 11826, " blaire": 11827, " thronos": 11828, "aidan": 11829, "angled": 11830, " unzipped": 11831, " calendar": 11832, " claims": 11833, " loomed": 11834, " tickling": 11835, "roc": 11836, " hallow": 11837, " mocked": 11838, " exaggerated": 11839, " audrey": 11840, "devyn": 11841, " expectantly": 11842, "xes": 11843, " simpl": 11844, " fatig": 11845, " dimple": 11846, " chilly": 11847, " radiating": 11848, " cupboard": 11849, " lus": 11850, "dest": 11851, " determine": 11852, " budge": 11853, " console": 11854, " scrib": 11855, "regardless": 11856, " fireworks": 11857, "blond": 11858, "running": 11859, "sleep": 11860, "pent": 11861, " clarity": 11862, "incl": 11863, " kyl": 11864, "idian": 11865, " stem": 11866, " attending": 11867, " hideous": 11868, " latter": 11869, " kicks": 11870, " styl": 11871, " motionless": 11872, " uns": 11873, "found": 11874, "fair": 11875, " jammed": 11876, "shif": 11877, "linn": 11878, " paths": 11879, " doorkno": 11880, " contacts": 11881, " contribut": 11882, " vibrator": 11883, " lowers": 11884, " notch": 11885, "tot": 11886, " plunge": 11887, "cu": 11888, " ledge": 11889, " shriek": 11890, " rebell": 11891, " involunt": 11892, " kindly": 11893, " blankly": 11894, " elimin": 11895, "jac": 11896, " melan": 11897, "doch": 11898, " alana": 11899, "coop": 11900, " acts": 11901, "olutely": 11902, " churning": 11903, " darkly": 11904, "waiting": 11905, " pean": 11906, " tide": 11907, " crimes": 11908, "sleeved": 11909, "proof": 11910, "hundred": 11911, "bod": 11912, "mc": 11913, " channing": 11914, "aelyn": 11915, " graduation": 11916, " croaked": 11917, " advised": 11918, " highlight": 11919, " mcc": 11920, " promptly": 11921, " reference": 11922, " worthless": 11923, "llie": 11924, " aimee": 11925, " slower": 11926, " bush": 11927, "iping": 11928, " florida": 11929, "bons": 11930, "joy": 11931, " gabrielle": 11932, "terior": 11933, " intimately": 11934, " extraordinary": 11935, " rashid": 11936, " communicate": 11937, " grill": 11938, " emptiness": 11939, "za": 11940, "quila": 11941, " thumped": 11942, "def": 11943, "minute": 11944, "looks": 11945, "grees": 11946, " recru": 11947, " tennis": 11948, " rented": 11949, " tantal": 11950, " clicking": 11951, "matic": 11952, " gypsy": 11953, " hayes": 11954, "gideon": 11955, " anxiously": 11956, " snaked": 11957, " crosses": 11958, "igning": 11959, " shatter": 11960, " interfere": 11961, " colorado": 11962, "lymp": 11963, " impossibly": 11964, " reassurance": 11965, " disappoint": 11966, " zipped": 11967, "inges": 11968, " gee": 11969, " resentment": 11970, " taunted": 11971, "lla": 11972, "maria": 11973, " importantly": 11974, " sty": 11975, " cramped": 11976, " feroc": 11977, " brightened": 11978, " scheme": 11979, " quilt": 11980, " county": 11981, " plunging": 11982, " stupidity": 11983, " britt": 11984, " angie": 11985, " coup": 11986, "ubbled": 11987, " independent": 11988, " degrees": 11989, " reunion": 11990, " mixing": 11991, " nanny": 11992, " disapproval": 11993, " cem": 11994, "anth": 11995, " nova": 11996, " iz": 11997, " blinks": 11998, " bancroft": 11999, "satisfied": 12000, " bureau": 12001, "roe": 12002, " astonishment": 12003, " hind": 12004, "odd": 12005, " slashed": 12006, "frowning": 12007, "death": 12008, " bla": 12009, " celestra": 12010, " scaring": 12011, " chicks": 12012, " ninety": 12013, "nodding": 12014, "inous": 12015, " tragedy": 12016, " stallion": 12017, " roc": 12018, "felt": 12019, " umm": 12020, "oyed": 12021, " adjusting": 12022, "iques": 12023, " asse": 12024, " therapist": 12025, " trails": 12026, " pasta": 12027, " pairs": 12028, " crave": 12029, " reson": 12030, " brat": 12031, " reenie": 12032, " ushered": 12033, " mound": 12034, " succeed": 12035, " documents": 12036, " deliberate": 12037, " moron": 12038, " addison": 12039, "viper": 12040, " doorknob": 12041, "wis": 12042, " temp": 12043, " savored": 12044, " navel": 12045, " envision": 12046, " awoke": 12047, " teenagers": 12048, " resur": 12049, "jeff": 12050, " thief": 12051, " yearning": 12052, " volunteered": 12053, "cord": 12054, " novak": 12055, " mckell": 12056, "tall": 12057, " purr": 12058, " smallest": 12059, " consuming": 12060, " outward": 12061, " heath": 12062, "slo": 12063, " salty": 12064, " cradle": 12065, " submit": 12066, " loser": 12067, " shadowhunters": 12068, " erect": 12069, " rumor": 12070, " bouquet": 12071, "completely": 12072, " drugged": 12073, " johnny": 12074, " mam": 12075, "kiara": 12076, " bobbed": 12077, " advanced": 12078, " connecting": 12079, " hooking": 12080, " thri": 12081, "ere": 12082, " counsel": 12083, "jasmine": 12084, " relative": 12085, " psycho": 12086, " divine": 12087, " crowds": 12088, " amid": 12089, " descend": 12090, "ii": 12091, " olymp": 12092, " isabel": 12093, "ffe": 12094, " marking": 12095, "aited": 12096, "yers": 12097, " sickening": 12098, " piv": 12099, " bail": 12100, " chiseled": 12101, " draining": 12102, " kir": 12103, " nurs": 12104, "sasha": 12105, " sumi": 12106, " itch": 12107, "putting": 12108, " flavor": 12109, " beers": 12110, " depressed": 12111, " squeezes": 12112, " patterns": 12113, "dun": 12114, " nursery": 12115, " amongst": 12116, "din": 12117, " hoarsely": 12118, " splash": 12119, " nude": 12120, " hush": 12121, " facade": 12122, " trickled": 12123, "vo": 12124, " tamara": 12125, " stevie": 12126, " brax": 12127, " container": 12128, " attent": 12129, "anter": 12130, "lers": 12131, " accurate": 12132, " angles": 12133, " sock": 12134, " condem": 12135, " altered": 12136, " unden": 12137, "ansom": 12138, " evapor": 12139, "human": 12140, " dungeon": 12141, "cour": 12142, " candid": 12143, " studies": 12144, "iche": 12145, " peach": 12146, " performed": 12147, " gruffly": 12148, " classroom": 12149, " traces": 12150, "aneous": 12151, " paranoid": 12152, " forcefully": 12153, " enveloped": 12154, "avi": 12155, " texting": 12156, " ecl": 12157, " luscious": 12158, " cringe": 12159, " visits": 12160, " dispos": 12161, " exhilar": 12162, "pitched": 12163, "gomery": 12164, " pixy": 12165, " inherited": 12166, "listen": 12167, " vegetables": 12168, " sternly": 12169, " mouse": 12170, " applic": 12171, "bryn": 12172, " bandage": 12173, "ture": 12174, " absorb": 12175, " organized": 12176, " slanted": 12177, "bound": 12178, " cob": 12179, " naz": 12180, " savanah": 12181, " quinton": 12182, " tequila": 12183, " writhed": 12184, " elevators": 12185, " massaged": 12186, "ensively": 12187, "state": 12188, " tablet": 12189, " fetch": 12190, " resignation": 12191, " earning": 12192, " risks": 12193, " belongings": 12194, " glitter": 12195, " destined": 12196, "beyond": 12197, "mus": 12198, " invaded": 12199, " talents": 12200, " irr": 12201, "oline": 12202, " agrees": 12203, " webs": 12204, "sto": 12205, "osity": 12206, " blend": 12207, " explored": 12208, " asher": 12209, " devastated": 12210, "non": 12211, " hypnot": 12212, " bled": 12213, " beams": 12214, " tourists": 12215, " transferred": 12216, "seen": 12217, " valentina": 12218, " casper": 12219, " rainier": 12220, "uation": 12221, " bye": 12222, "best": 12223, " ideal": 12224, "adow": 12225, "oliver": 12226, " capacity": 12227, " licks": 12228, "paul": 12229, " hangs": 12230, " goat": 12231, " companies": 12232, " ordering": 12233, " mothers": 12234, " exhale": 12235, " gettin": 12236, " popcorn": 12237, " enh": 12238, " supposedly": 12239, " sylvia": 12240, " drenched": 12241, " mich": 12242, " anonym": 12243, "working": 12244, "lust": 12245, "wanted": 12246, " investigator": 12247, " lanthe": 12248, "ortion": 12249, " gnaw": 12250, "ican": 12251, " thumping": 12252, " battling": 12253, " danny": 12254, "vic": 12255, " evangeline": 12256, "ovan": 12257, "sloane": 12258, " jal": 12259, " verlaine": 12260, " nausea": 12261, " incon": 12262, "xim": 12263, " sickness": 12264, " lyric": 12265, " politics": 12266, " inhale": 12267, " shak": 12268, "scar": 12269, " tailored": 12270, " enticing": 12271, " slicing": 12272, " kayla": 12273, "hau": 12274, " robbie": 12275, " sane": 12276, "ciless": 12277, "coll": 12278, " shrink": 12279, " apologizing": 12280, " grated": 12281, " straightening": 12282, " fathom": 12283, " hitch": 12284, "uge": 12285, "enna": 12286, "rat": 12287, " pursue": 12288, " iced": 12289, " weeping": 12290, " boxer": 12291, "person": 12292, " patrons": 12293, " deliciously": 12294, "gate": 12295, " lashed": 12296, " smoldering": 12297, " kylie": 12298, " chandler": 12299, "jad": 12300, " grandchild": 12301, " steered": 12302, " spoil": 12303, " scholar": 12304, " coord": 12305, "brother": 12306, " punishing": 12307, "nut": 12308, " indec": 12309, " technology": 12310, " millions": 12311, " cancel": 12312, " galen": 12313, " semes": 12314, "grown": 12315, "pierce": 12316, " jillian": 12317, " coiled": 12318, " wither": 12319, " contemplated": 12320, "fur": 12321, " visitor": 12322, "pad": 12323, " squeak": 12324, " boom": 12325, "weight": 12326, "rical": 12327, "cond": 12328, "raising": 12329, " swings": 12330, " hurrying": 12331, "vol": 12332, "deal": 12333, "enance": 12334, "aska": 12335, "regan": 12336, " metis": 12337, " sinks": 12338, " tra": 12339, " lacked": 12340, " sharpened": 12341, "ocused": 12342, "strange": 12343,
[...]
